<pad>	0
<s>	0
</s>	0
<unk>	0
▁a	-0
in	-1
▁t	-2
▁s	-3
▁o	-4
ing	-5
▁b	-6
it	-7
▁w	-8
he	-9
▁p	-10
an	-11
re	-12
▁c	-13
le	-14
▁on	-15
er	-16
▁the	-17
at	-18
▁of	-19
▁in	-20
▁an	-21
ar	-22
ro	-23
▁f	-24
is	-25
▁m	-26
▁wit	-27
▁with	-28
▁h	-29
▁d	-30
▁g	-31
▁and	-32
▁l	-33
al	-34
en	-35
▁to	-36
▁st	-37
om	-38
ra	-39
ding	-40
es	-41
on	-42
ck	-43
ed	-44
ow	-45
▁is	-46
or	-47
et	-48
un	-49
la	-50
ir	-51
▁man	-52
▁n	-53
as	-54
op	-55
ting	-56
▁sit	-57
all	-58
ch	-59
up	-60
ri	-61
oo	-62
▁ne	-63
il	-64
▁th	-65
el	-66
ot	-67
ut	-68
▁wh	-69
id	-70
ur	-71
▁stan	-72
▁sitting	-73
ol	-74
ge	-75
ers	-76
▁are	-77
▁tw	-78
ic	-79
▁two	-80
us	-81
ard	-82
ab	-83
▁at	-84
ite	-85
king	-86
ig	-87
▁pe	-88
▁co	-89
her	-90
▁e	-91
▁sk	-92
▁be	-93
ss	-94
▁re	-95
ying	-96
▁standing	-97
▁peop	-98
▁people	-99
▁tra	-100
eb	-101
ide	-102
▁ro	-103
oard	-104
▁wom	-105
ad	-106
▁v	-107
xt	-108
able	-109
▁k	-110
▁do	-111
▁next	-112
▁white	-113
▁pla	-114
lo	-115
▁woman	-116
▁it	-117
ile	-118
ff	-119
▁hol	-120
▁table	-121
▁stre	-122
▁pl	-123
und	-124
▁street	-125
ome	-126
▁fi	-127
▁fro	-128
ood	-129
▁bo	-130
ve	-131
ver	-132
▁that	-133
▁y	-134
▁ri	-135
▁holding	-136
ce	-137
▁par	-138
▁gro	-139
▁sh	-140
▁some	-141
▁la	-142
▁top	-143
own	-144
▁ch	-145
▁gra	-146
▁sm	-147
ate	-148
▁pers	-149
▁person	-150
nt	-151
▁bat	-152
▁lar	-153
▁large	-154
ant	-155
oun	-156
▁down	-157
▁cat	-158
um	-159
▁wat	-160
and	-161
am	-162
che	-163
▁clo	-164
▁pi	-165
▁up	-166
▁group	-167
▁fl	-168
▁sn	-169
ion	-170
eld	-171
ach	-172
▁dog	-173
▁car	-174
ul	-175
▁out	-176
▁field	-177
▁snow	-178
ke	-179
▁near	-180
▁ten	-181
se	-182
▁small	-183
nis	-184
ign	-185
▁train	-186
▁bla	-187
▁his	-188
▁wal	-189
▁tennis	-190
▁front	-191
▁black	-192
▁park	-193
ack	-194
▁bus	-195
▁bas	-196
▁ra	-197
ree	-198
▁sur	-199
ug	-200
▁sign	-201
st	-202
ht	-203
room	-204
▁plate	-205
▁room	-206
ure	-207
row	-208
▁se	-209
▁riding	-210
ay	-211
ind	-212
ell	-213
▁bl	-214
▁air	-215
▁side	-216
▁grass	-217
▁kit	-218
oung	-219
▁red	-220
▁ph	-221
▁young	-222
▁bu	-223
▁water	-224
ue	-225
im	-226
▁by	-227
▁loo	-228
round	-229
one	-230
▁surf	-231
ain	-232
ving	-233
board	-234
▁buil	-235
ru	-236
▁bath	-237
ph	-238
eball	-239
ffe	-240
▁baseball	-241
▁bed	-242
side	-243
▁building	-244
red	-245
reen	-246
ink	-247
air	-248
▁skat	-249
▁has	-250
▁play	-251
▁com	-252
ter	-253
▁while	-254
▁playing	-255
▁walking	-256
pt	-257
▁skateb	-258
▁bathroom	-259
▁gi	-260
▁j	-261
zz	-262
ight	-263
yc	-264
▁food	-265
ds	-266
▁for	-267
▁hor	-268
▁blue	-269
▁her	-270
▁pizz	-271
ct	-272
▁po	-273
chen	-274
▁kitchen	-275
▁ot	-276
aring	-277
▁other	-278
ycle	-279
▁skateboard	-280
▁mot	-281
▁back	-282
▁wood	-283
age	-284
▁green	-285
umb	-286
▁ele	-287
▁there	-288
irt	-289
▁gira	-290
▁boy	-291
▁pizza	-292
▁li	-293
▁parked	-294
ie	-295
▁ball	-296
▁ski	-297
▁looking	-298
▁motor	-299
▁he	-300
ugh	-301
▁z	-302
ran	-303
▁le	-304
▁ben	-305
ture	-306
▁we	-307
▁over	-308
tle	-309
get	-310
ity	-311
▁beach	-312
▁eat	-313
▁toile	-314
▁clock	-315
▁toilet	-316
▁coup	-317
▁ca	-318
▁bear	-319
▁couple	-320
phant	-321
irl	-322
ep	-323
▁pic	-324
▁elephant	-325
▁des	-326
▁girl	-327
▁three	-328
▁wa	-329
▁men	-330
rel	-331
▁comp	-332
▁road	-333
▁con	-334
ent	-335
ild	-336
ame	-337
ane	-338
pp	-339
▁picture	-340
led	-341
▁city	-342
rella	-343
▁umb	-344
▁dis	-345
▁motorc	-346
▁umbrella	-347
▁she	-348
▁flying	-349
cks	-350
lass	-351
ris	-352
▁board	-353
▁wearing	-354
▁al	-355
▁tow	-356
dy	-357
▁sl	-358
▁motorcycle	-359
▁player	-360
▁lapt	-361
▁laptop	-362
▁wind	-363
ee	-364
ub	-365
ous	-366
▁game	-367
ill	-368
ine	-369
▁sever	-370
▁several	-371
ebra	-372
▁zebra	-373
▁child	-374
▁pas	-375
▁laying	-376
ong	-377
▁comput	-378
▁from	-379
▁sits	-380
ld	-381
▁as	-382
tain	-383
▁sand	-384
▁wooden	-385
rown	-386
▁bench	-387
▁int	-388
▁r	-389
▁window	-390
▁sink	-391
rough	-392
▁glass	-393
▁airp	-394
▁area	-395
ks	-396
▁one	-397
▁their	-398
▁through	-399
▁boat	-400
▁tru	-401
▁wall	-402
▁brown	-403
▁fris	-404
▁chair	-405
pen	-406
▁frisb	-407
ellow	-408
▁around	-409
▁horse	-410
▁old	-411
▁eating	-412
▁yellow	-413
▁cake	-414
ase	-415
▁light	-416
▁sc	-417
▁stop	-418
▁hand	-419
ull	-420
▁ta	-421
▁computer	-422
▁bir	-423
▁phone	-424
▁frisbee	-425
▁giraffe	-426
oto	-427
▁und	-428
▁photo	-429
▁de	-430
▁lit	-431
▁desk	-432
▁under	-433
ort	-434
ice	-435
▁ve	-436
▁open	-437
▁close	-438
▁fo	-439
uit	-440
▁outside	-441
ery	-442
way	-443
▁sp	-444
bo	-445
▁living	-446
▁tre	-447
▁mo	-448
▁truck	-449
▁sw	-450
▁fire	-451
cc	-452
▁te	-453
▁flo	-454
ross	-455
▁ban	-456
ag	-457
▁lot	-458
▁surfboard	-459
▁bow	-460
▁bun	-461
vered	-462
▁col	-463
▁di	-464
▁bri	-465
▁trees	-466
▁tree	-467
▁en	-468
ap	-469
▁cow	-470
▁coun	-471
les	-472
▁each	-473
ation	-474
ger	-475
▁covered	-476
▁many	-477
ady	-478
▁cour	-479
▁cell	-480
▁fil	-481
▁banan	-482
▁this	-483
▁very	-484
qu	-485
▁suit	-486
▁so	-487
ses	-488
▁beh	-489
▁behind	-490
▁bowl	-491
▁oran	-492
▁off	-493
▁filled	-494
▁court	-495
ground	-496
pla	-497
▁little	-498
▁sky	-499
ves	-500
▁cut	-501
uch	-502
▁its	-503
▁flow	-504
ump	-505
if	-506
▁fen	-507
▁show	-508
▁into	-509
ets	-510
gether	-511
▁together	-512
ction	-513
ors	-514
eat	-515
▁kite	-516
▁sandw	-517
▁abo	-518
▁rack	-519
ich	-520
iew	-521
▁airpl	-522
▁bi	-523
ts	-524
▁moun	-525
ly	-526
ush	-527
▁run	-528
▁sto	-529
▁background	-530
▁view	-531
▁dri	-532
▁inside	-533
alk	-534
dle	-535
▁skis	-536
▁ma	-537
▁shirt	-538
▁big	-539
▁sheep	-540
ped	-541
▁mir	-542
▁mirro	-543
▁stands	-544
▁app	-545
▁pre	-546
▁mirror	-547
▁displa	-548
▁bunch	-549
ry	-550
▁couch	-551
▁hot	-552
▁go	-553
cean	-554
▁ocean	-555
dr	-556
walk	-557
▁bird	-558
▁pie	-559
▁hy	-560
ffic	-561
▁counter	-562
do	-563
▁veget	-564
▁traffic	-565
drant	-566
rent	-567
▁hydrant	-568
ches	-569
▁mid	-570
▁airplane	-571
▁swing	-572
orm	-573
▁fence	-574
▁ted	-575
▁sandwich	-576
▁teddy	-577
▁display	-578
▁che	-579
▁floor	-580
uff	-581
▁hill	-582
▁vegetable	-583
▁ref	-584
other	-585
ang	-586
ching	-587
▁orange	-588
▁wi	-589
▁women	-590
▁head	-591
▁another	-592
fferent	-593
▁dirt	-594
▁different	-595
▁anim	-596
sing	-597
ment	-598
▁sidewalk	-599
▁tri	-600
ted	-601
ies	-602
ner	-603
▁animal	-604
▁mountain	-605
▁plane	-606
▁fe	-607
ress	-608
▁stand	-609
iling	-610
▁wave	-611
▁flowers	-612
▁tower	-613
▁jump	-614
mp	-615
▁tall	-616
ruit	-617
▁bab	-618
ouse	-619
▁met	-620
▁tracks	-621
▁vase	-622
▁parking	-623
ook	-624
▁horses	-625
▁fruit	-626
▁bro	-627
▁giraff	-628
etting	-629
▁giraffes	-630
▁hit	-631
▁cars	-632
▁plat	-633
▁sa	-634
▁along	-635
▁im	-636
▁baby	-637
ace	-638
▁day	-639
▁racket	-640
▁ground	-641
▁ar	-642
▁tie	-643
▁vegetables	-644
ip	-645
▁sun	-646
ugg	-647
▁us	-648
▁rid	-649
ren	-650
▁bot	-651
▁snowboard	-652
▁graz	-653
▁grassy	-654
vel	-655
▁being	-656
▁full	-657
ket	-658
te	-659
▁zebras	-660
▁hang	-661
▁elephants	-662
▁stuff	-663
▁rest	-664
▁gu	-665
hes	-666
▁slop	-667
▁station	-668
ari	-669
▁bananas	-670
▁dr	-671
ey	-672
▁middle	-673
uring	-674
hing	-675
▁un	-676
▁cl	-677
ated	-678
kes	-679
ven	-680
▁ha	-681
ick	-682
▁ad	-683
▁cup	-684
▁ready	-685
▁dress	-686
rying	-687
▁image	-688
▁pro	-689
ac	-690
▁four	-691
urn	-692
▁vari	-693
igh	-694
▁taking	-695
▁box	-696
▁cam	-697
▁crow	-698
▁signs	-699
▁hat	-700
▁cor	-701
▁bes	-702
▁bike	-703
▁them	-704
ator	-705
▁lo	-706
▁driving	-707
▁slope	-708
ult	-709
▁stuffed	-710
▁cross	-711
oli	-712
▁crowd	-713
ade	-714
▁ac	-715
rol	-716
▁piece	-717
ched	-718
▁wine	-719
▁long	-720
▁above	-721
dge	-722
ler	-723
▁pass	-724
▁brocc	-725
▁lugg	-726
▁guy	-727
▁wor	-728
▁luggage	-729
▁broccoli	-730
▁em	-731
▁across	-732
▁grazing	-733
▁cows	-734
▁cont	-735
ess	-736
▁beside	-737
▁refri	-738
▁kn	-739
▁prep	-740
uts	-741
▁skiing	-742
▁skate	-743
▁refriger	-744
▁kid	-745
▁snowy	-746
▁travel	-747
▁key	-748
▁fri	-749
▁hanging	-750
▁door	-751
ms	-752
▁wii	-753
▁camer	-754
▁don	-755
▁during	-756
▁refrigerator	-757
iting	-758
cor	-759
▁tele	-760
▁bic	-761
▁glasses	-762
▁color	-763
▁holds	-764
▁bag	-765
▁doub	-766
▁cle	-767
▁pink	-768
res	-769
▁camera	-770
der	-771
▁tal	-772
▁children	-773
▁doing	-774
▁rem	-775
ust	-776
▁sho	-777
▁past	-778
▁herd	-779
ning	-780
ak	-781
▁pair	-782
▁buildings	-783
ese	-784
▁double	-785
▁pap	-786
▁pole	-787
▁passen	-788
▁keyboard	-789
▁oven	-790
▁rac	-791
▁decor	-792
▁empt	-793
ful	-794
▁bicycle	-795
▁empty	-796
▁corner	-797
vis	-798
▁going	-799
▁per	-800
▁ser	-801
▁umbrellas	-802
▁high	-803
▁cutting	-804
▁cab	-805
▁track	-806
▁control	-807
▁pot	-808
▁walk	-809
▁watching	-810
▁kites	-811
▁stove	-812
▁who	-813
▁looks	-814
▁mar	-815
▁trick	-816
vision	-817
▁jumping	-818
▁television	-819
▁me	-820
▁bre	-821
▁smiling	-822
rush	-823
▁chairs	-824
▁bottle	-825
▁socc	-826
form	-827
▁soccer	-828
▁dogs	-829
▁boats	-830
▁pit	-831
▁cur	-832
▁talking	-833
▁din	-834
▁ag	-835
▁suitc	-836
▁posing	-837
▁ste	-838
▁airport	-839
▁vide	-840
▁traveling	-841
ght	-842
▁video	-843
ten	-844
ans	-845
▁tv	-846
▁colorful	-847
▁swinging	-848
▁set	-849
▁remot	-850
▁birds	-851
▁topped	-852
▁various	-853
▁lady	-854
▁animals	-855
▁all	-856
▁using	-857
▁getting	-858
▁body	-859
▁contain	-860
ces	-861
▁cabin	-862
▁paper	-863
▁pat	-864
ping	-865
▁pain	-866
▁night	-867
▁plates	-868
▁mon	-869
▁home	-870
pe	-871
▁again	-872
oth	-873
ft	-874
▁against	-875
▁fore	-876
▁rail	-877
▁coffe	-878
▁brick	-879
quet	-880
▁deck	-881
leep	-882
▁throw	-883
▁bar	-884
▁coffee	-885
arding	-886
▁jet	-887
▁som	-888
ast	-889
▁meat	-890
▁banana	-891
▁cheese	-892
▁ite	-893
▁river	-894
ud	-895
▁carrying	-896
gs	-897
▁him	-898
▁pol	-899
cher	-900
▁lea	-901
▁lots	-902
▁motorcycles	-903
▁someone	-904
▁can	-905
aur	-906
▁tray	-907
▁bedroom	-908
▁somet	-909
▁pull	-910
ian	-911
▁house	-912
▁something	-913
aurant	-914
▁restaurant	-915
iss	-916
▁waiting	-917
▁drink	-918
▁lin	-919
▁bears	-920
▁lights	-921
ored	-922
▁row	-923
▁shel	-924
uth	-925
▁remote	-926
▁or	-927
clo	-928
▁boo	-929
▁metal	-930
▁shower	-931
est	-932
▁players	-933
ool	-934
▁plant	-935
ato	-936
alf	-937
▁skateboarder	-938
▁sleep	-939
▁runway	-940
ced	-941
▁face	-942
▁tile	-943
▁outdo	-944
clos	-945
▁toy	-946
▁items	-947
▁about	-948
▁racquet	-949
▁ramp	-950
▁skier	-951
▁carro	-952
ave	-953
▁res	-954
ark	-955
▁enclos	-956
▁dough	-957
▁clou	-958
▁running	-959
▁mic	-960
erse	-961
▁surfer	-962
▁slic	-963
▁book	-964
▁pile	-965
▁busy	-966
ases	-967
▁line	-968
ial	-969
▁hands	-970
▁att	-971
▁rain	-972
▁pur	-973
▁interse	-974
▁hel	-975
gra	-976
▁passenger	-977
▁lying	-978
▁mouth	-979
▁screen	-980
▁intersection	-981
▁sil	-982
ty	-983
▁ce	-984
▁doughn	-985
▁dressed	-986
▁male	-987
are	-988
▁toward	-989
arm	-990
▁am	-991
▁monit	-992
▁seat	-993
▁half	-994
▁store	-995
▁surfing	-996
▁gre	-997
▁numb	-998
▁like	-999
▁suitcase	-1000
▁whe	-1001
▁photogra	-1002
▁pan	-1003
▁rock	-1004
▁decker	-1005
▁no	-1006
we	-1007
▁tub	-1008
ple	-1009
▁slice	-1010
▁batter	-1011
raw	-1012
▁shown	-1013
ges	-1014
▁brush	-1015
▁sciss	-1016
ones	-1017
ife	-1018
▁preparing	-1019
▁dark	-1020
▁jack	-1021
uce	-1022
▁rides	-1023
ive	-1024
▁made	-1025
phone	-1026
hic	-1027
▁pulling	-1028
▁look	-1029
▁vehic	-1030
▁scissors	-1031
▁gray	-1032
▁silver	-1033
to	-1034
▁sleeping	-1035
cl	-1036
▁mat	-1037
▁bridge	-1038
▁surround	-1039
▁ty	-1040
ading	-1041
▁donuts	-1042
▁tooth	-1043
art	-1044
▁zoo	-1045
▁way	-1046
col	-1047
▁number	-1048
▁microw	-1049
▁enclosure	-1050
ny	-1051
▁kids	-1052
▁post	-1053
iz	-1054
ating	-1055
▁controller	-1056
▁bet	-1057
▁hair	-1058
▁knife	-1059
ather	-1060
ars	-1061
▁surrounded	-1062
sh	-1063
ond	-1064
▁microwave	-1065
ween	-1066
▁forest	-1067
▁mult	-1068
ron	-1069
▁between	-1070
▁showing	-1071
aning	-1072
▁jacket	-1073
gg	-1074
▁bright	-1075
▁adult	-1076
▁carrots	-1077
▁meal	-1078
ale	-1079
▁bread	-1080
▁photograph	-1081
▁colored	-1082
▁pill	-1083
ooking	-1084
▁decorated	-1085
▁lake	-1086
▁few	-1087
eath	-1088
▁sal	-1089
iform	-1090
▁uniform	-1091
ect	-1092
▁boys	-1093
▁cabinets	-1094
ash	-1095
▁lined	-1096
▁buses	-1097
ll	-1098
▁count	-1099
▁mouse	-1100
▁walks	-1101
▁older	-1102
ved	-1103
elf	-1104
pes	-1105
anes	-1106
▁skiers	-1107
▁scen	-1108
▁blan	-1109
ached	-1110
▁furn	-1111
▁cand	-1112
iture	-1113
▁purple	-1114
▁furniture	-1115
▁stat	-1116
▁bran	-1117
ime	-1118
ries	-1119
▁ex	-1120
▁grey	-1121
▁oranges	-1122
▁books	-1123
▁dock	-1124
▁girls	-1125
▁cho	-1126
▁stick	-1127
▁outdoor	-1128
▁stri	-1129
ser	-1130
▁pick	-1131
lic	-1132
▁shop	-1133
▁ho	-1134
▁dish	-1135
▁pillow	-1136
▁have	-1137
▁cloudy	-1138
▁waves	-1139
atoes	-1140
▁comm	-1141
▁displayed	-1142
▁throwing	-1143
pped	-1144
▁coming	-1145
▁chocol	-1146
old	-1147
▁attached	-1148
▁incl	-1149
▁fork	-1150
day	-1151
▁chocolate	-1152
▁eng	-1153
▁fla	-1154
▁fem	-1155
▁monitor	-1156
▁onto	-1157
▁clean	-1158
▁making	-1159
▁leaning	-1160
▁windows	-1161
ings	-1162
▁helm	-1163
▁ob	-1164
ily	-1165
▁crossing	-1166
▁ass	-1167
inking	-1168
▁shelf	-1169
oon	-1170
ish	-1171
▁stone	-1172
▁perform	-1173
▁elect	-1174
▁dining	-1175
▁salad	-1176
▁scene	-1177
▁cook	-1178
▁cats	-1179
ance	-1180
irth	-1181
▁birth	-1182
▁rocks	-1183
▁painted	-1184
ble	-1185
▁drinking	-1186
▁hitting	-1187
▁birthday	-1188
▁pen	-1189
▁market	-1190
by	-1191
▁turn	-1192
▁basket	-1193
▁seen	-1194
▁watch	-1195
▁lush	-1196
de	-1197
▁meter	-1198
▁bea	-1199
▁walls	-1200
▁ed	-1201
▁apples	-1202
▁female	-1203
els	-1204
▁resting	-1205
▁lamp	-1206
▁pub	-1207
▁work	-1208
▁towards	-1209
▁flower	-1210
▁fruits	-1211
▁office	-1212
int	-1213
ken	-1214
▁apple	-1215
▁country	-1216
▁public	-1217
▁beaut	-1218
▁clear	-1219
▁tables	-1220
▁pa	-1221
ents	-1222
▁sunny	-1223
▁fries	-1224
▁setting	-1225
▁plast	-1226
▁lay	-1227
▁clot	-1228
ary	-1229
eth	-1230
ire	-1231
▁beautif	-1232
▁blanket	-1233
▁plastic	-1234
oot	-1235
▁catch	-1236
▁leaves	-1237
▁moving	-1238
aching	-1239
jo	-1240
▁shot	-1241
▁police	-1242
▁pictures	-1243
▁stopped	-1244
▁surfboards	-1245
ti	-1246
▁not	-1247
▁catcher	-1248
▁been	-1249
▁edge	-1250
▁tom	-1251
▁snowboarder	-1252
▁bikes	-1253
▁mountains	-1254
less	-1255
▁teeth	-1256
▁helmet	-1257
sp	-1258
resh	-1259
▁assort	-1260
▁enjo	-1261
▁beautiful	-1262
▁stack	-1263
▁squ	-1264
▁path	-1265
▁platform	-1266
▁working	-1267
▁fresh	-1268
▁smile	-1269
▁toothb	-1270
▁donut	-1271
▁sub	-1272
▁short	-1273
▁ur	-1274
lection	-1275
▁ride	-1276
▁statue	-1277
▁undern	-1278
▁underneath	-1279
▁trying	-1280
▁cre	-1281
▁bel	-1282
▁slices	-1283
▁topping	-1284
ety	-1285
▁yard	-1286
▁branch	-1287
tered	-1288
▁prepa	-1289
▁dist	-1290
▁cart	-1291
ear	-1292
▁base	-1293
hed	-1294
▁lap	-1295
▁af	-1296
▁shap	-1297
▁sing	-1298
▁time	-1299
▁but	-1300
hered	-1301
ally	-1302
▁fam	-1303
▁wild	-1304
▁carri	-1305
oarding	-1306
▁van	-1307
▁pieces	-1308
▁having	-1309
▁nice	-1310
▁skateboarding	-1311
▁wet	-1312
▁pitcher	-1313
len	-1314
▁placed	-1315
▁computers	-1316
▁shows	-1317
▁perched	-1318
▁fac	-1319
▁new	-1320
run	-1321
inal	-1322
▁mil	-1323
▁draw	-1324
▁pitch	-1325
▁cellphone	-1326
▁case	-1327
▁pepp	-1328
wn	-1329
▁dire	-1330
▁shore	-1331
▁passing	-1332
ca	-1333
ling	-1334
▁gar	-1335
gers	-1336
▁spe	-1337
▁put	-1338
▁vehicle	-1339
▁moder	-1340
▁appl	-1341
▁cooking	-1342
▁surface	-1343
▁sandy	-1344
▁dinner	-1345
ist	-1346
▁arm	-1347
▁vases	-1348
▁they	-1349
▁hotel	-1350
▁eaten	-1351
▁family	-1352
oll	-1353
▁modern	-1354
▁neck	-1355
▁trains	-1356
▁laptops	-1357
▁dry	-1358
ric	-1359
▁tan	-1360
top	-1361
▁applian	-1362
▁doughnut	-1363
▁ind	-1364
▁land	-1365
▁conc	-1366
▁boards	-1367
ition	-1368
▁beer	-1369
ix	-1370
▁pizzas	-1371
▁nin	-1372
▁town	-1373
▁chick	-1374
▁ey	-1375
▁types	-1376
▁brushing	-1377
▁tiled	-1378
▁sty	-1379
▁just	-1380
▁sauce	-1381
▁reading	-1382
ines	-1383
ats	-1384
▁multip	-1385
▁benches	-1386
▁trun	-1387
bor	-1388
▁ninten	-1389
▁single	-1390
▁toppings	-1391
▁multiple	-1392
▁nintendo	-1393
▁roll	-1394
▁engine	-1395
▁others	-1396
iti	-1397
▁watches	-1398
▁was	-1399
▁feat	-1400
▁doughnuts	-1401
ides	-1402
eeding	-1403
▁ped	-1404
▁chicken	-1405
▁pret	-1406
▁gat	-1407
▁graff	-1408
th	-1409
▁gri	-1410
▁plants	-1411
▁variety	-1412
▁kind	-1413
ley	-1414
▁take	-1415
bb	-1416
ject	-1417
▁pack	-1418
que	-1419
▁mounted	-1420
▁enjoying	-1421
ized	-1422
▁curb	-1423
▁place	-1424
▁equ	-1425
▁guys	-1426
▁graffiti	-1427
▁sail	-1428
▁left	-1429
armac	-1430
▁bowls	-1431
htub	-1432
▁trucks	-1433
▁pretty	-1434
▁tarmac	-1435
▁bathtub	-1436
ming	-1437
▁flat	-1438
ely	-1439
▁see	-1440
ures	-1441
▁hotdo	-1442
▁distance	-1443
▁sof	-1444
▁passengers	-1445
▁phones	-1446
▁after	-1447
▁woods	-1448
▁pad	-1449
▁gear	-1450
cial	-1451
vers	-1452
▁shoes	-1453
▁performing	-1454
▁appliances	-1455
os	-1456
▁end	-1457
▁gathered	-1458
▁cute	-1459
▁desser	-1460
▁well	-1461
road	-1462
▁rice	-1463
▁tricks	-1464
▁fenced	-1465
▁swim	-1466
▁pedest	-1467
▁containing	-1468
▁bal	-1469
▁fly	-1470
▁.	-1471
ins	-1472
▁glo	-1473
▁arran	-1474
▁candles	-1475
place	-1476
▁curtain	-1477
ages	-1478
▁stair	-1479
▁tran	-1480
▁bottles	-1481
▁carriage	-1482
▁clut	-1483
▁break	-1484
▁five	-1485
▁team	-1486
▁flies	-1487
▁pasture	-1488
▁du	-1489
▁bags	-1490
▁railroad	-1491
▁toothbrush	-1492
▁feeding	-1493
▁dirty	-1494
▁i	-1495
rete	-1496
▁concrete	-1497
ronic	-1498
▁spoon	-1499
▁sch	-1500
man	-1501
▁foot	-1502
▁below	-1503
▁poles	-1504
▁cattle	-1505
▁poin	-1506
▁onion	-1507
pack	-1508
head	-1509
▁right	-1510
enter	-1511
uding	-1512
▁match	-1513
▁school	-1514
▁electronic	-1515
▁drinks	-1516
ram	-1517
▁including	-1518
▁center	-1519
anc	-1520
▁pillows	-1521
▁steel	-1522
▁fireplace	-1523
light	-1524
iding	-1525
▁takes	-1526
ini	-1527
▁pul	-1528
▁among	-1529
▁sofa	-1530
▁clos	-1531
▁hu	-1532
▁step	-1533
ession	-1534
▁backpack	-1535
ball	-1536
intage	-1537
▁crowded	-1538
▁vintage	-1539
fe	-1540
▁striped	-1541
upp	-1542
▁polar	-1543
ips	-1544
▁pulled	-1545
ads	-1546
▁wr	-1547
uches	-1548
▁alone	-1549
▁sandwic	-1550
▁nearby	-1551
▁beds	-1552
▁ap	-1553
▁ti	-1554
▁prof	-1555
▁boxes	-1556
▁sandwiches	-1557
▁loc	-1558
▁wra	-1559
▁painting	-1560
▁huge	-1561
▁catching	-1562
▁let	-1563
▁skateboards	-1564
▁chur	-1565
▁object	-1566
▁trunk	-1567
▁fridge	-1568
▁direction	-1569
▁gold	-1570
▁qu	-1571
▁mess	-1572
▁feet	-1573
▁planes	-1574
ames	-1575
▁sliced	-1576
▁sinks	-1577
▁church	-1578
▁container	-1579
▁cream	-1580
▁giant	-1581
▁cabinet	-1582
lin	-1583
ged	-1584
rist	-1585
▁equip	-1586
▁art	-1587
ered	-1588
▁del	-1589
▁shaped	-1590
▁suitcases	-1591
▁equipment	-1592
self	-1593
▁vehicles	-1594
▁round	-1595
▁bicycles	-1596
ural	-1597
▁both	-1598
anding	-1599
▁deser	-1600
▁served	-1601
ens	-1602
stru	-1603
▁kne	-1604
▁reaching	-1605
▁tour	-1606
▁plays	-1607
▁where	-1608
▁putting	-1609
▁bushes	-1610
▁profession	-1611
ical	-1612
▁wait	-1613
mb	-1614
▁asian	-1615
▁clothes	-1616
▁floating	-1617
▁stall	-1618
▁wed	-1619
iv	-1620
▁smiles	-1621
▁professional	-1622
▁legs	-1623
▁tomatoes	-1624
▁low	-1625
eling	-1626
▁poses	-1627
aking	-1628
▁atop	-1629
alm	-1630
▁surfers	-1631
▁mas	-1632
▁part	-1633
ore	-1634
▁trail	-1635
▁sticking	-1636
▁away	-1637
▁towel	-1638
▁pedestri	-1639
wing	-1640
▁dishes	-1641
ycl	-1642
▁serve	-1643
▁taken	-1644
▁space	-1645
▁prepares	-1646
▁lays	-1647
▁rug	-1648
▁cover	-1649
▁fa	-1650
▁hay	-1651
▁wire	-1652
▁blo	-1653
▁airplanes	-1654
rus	-1655
▁style	-1656
land	-1657
glass	-1658
▁serving	-1659
▁potatoes	-1660
▁commer	-1661
ons	-1662
▁stain	-1663
▁bak	-1664
elling	-1665
▁check	-1666
▁staring	-1667
▁commercial	-1668
▁blen	-1669
iness	-1670
ident	-1671
▁offic	-1672
mas	-1673
▁mother	-1674
▁foods	-1675
let	-1676
▁win	-1677
▁business	-1678
▁reflection	-1679
▁smo	-1680
▁pose	-1681
▁dev	-1682
▁pos	-1683
▁frien	-1684
fast	-1685
ber	-1686
owing	-1687
glasses	-1688
▁breakfast	-1689
ashion	-1690
▁cement	-1691
▁cra	-1692
▁which	-1693
▁christ	-1694
▁form	-1695
sc	-1696
rench	-1697
▁pool	-1698
▁shorts	-1699
▁subway	-1700
▁design	-1701
▁stacked	-1702
▁christmas	-1703
iny	-1704
▁farm	-1705
ise	-1706
▁ump	-1707
▁lone	-1708
▁square	-1709
vent	-1710
▁soup	-1711
boarding	-1712
ward	-1713
▁cooked	-1714
aded	-1715
▁lun	-1716
▁straw	-1717
▁french	-1718
ract	-1719
▁har	-1720
▁same	-1721
ular	-1722
▁urinal	-1723
co	-1724
▁trash	-1725
ils	-1726
▁dessert	-1727
▁pow	-1728
▁kitten	-1729
▁flag	-1730
ban	-1731
▁roo	-1732
▁cluttered	-1733
▁gard	-1734
▁highway	-1735
out	-1736
urry	-1737
▁seated	-1738
io	-1739
ists	-1740
▁swings	-1741
▁umpire	-1742
▁outdoors	-1743
▁games	-1744
▁outf	-1745
▁docked	-1746
▁garden	-1747
▁swimming	-1748
▁hard	-1749
per	-1750
▁sunglasses	-1751
▁fun	-1752
▁ham	-1753
▁get	-1754
▁pepper	-1755
▁clocks	-1756
▁wedding	-1757
artment	-1758
▁couches	-1759
ults	-1760
▁overl	-1761
▁blender	-1762
▁boarding	-1763
▁cro	-1764
▁hotdog	-1765
struction	-1766
tom	-1767
▁assortment	-1768
ual	-1769
ants	-1770
itary	-1771
▁adults	-1772
kets	-1773
▁ret	-1774
ium	-1775
▁mach	-1776
liner	-1777
▁lad	-1778
icing	-1779
▁gr	-1780
▁mus	-1781
▁ter	-1782
▁cla	-1783
▁say	-1784
▁ent	-1785
▁ear	-1786
▁ice	-1787
▁controllers	-1788
▁gather	-1789
made	-1790
▁prod	-1791
▁drives	-1792
▁hillside	-1793
ded	-1794
▁kick	-1795
▁restroom	-1796
▁doors	-1797
oni	-1798
pping	-1799
▁flock	-1800
▁signal	-1801
▁desktop	-1802
▁yo	-1803
▁shelves	-1804
▁fashion	-1805
▁rocky	-1806
▁ceiling	-1807
▁military	-1808
▁eg	-1809
▁onions	-1810
iler	-1811
▁ledge	-1812
ddle	-1813
▁eyes	-1814
▁fish	-1815
▁jumps	-1816
▁lawn	-1817
▁wooded	-1818
▁does	-1819
▁inter	-1820
▁stainless	-1821
▁appro	-1822
▁skies	-1823
▁fall	-1824
▁cr	-1825
▁facing	-1826
▁stairs	-1827
▁ext	-1828
▁race	-1829
▁acc	-1830
▁fram	-1831
▁sea	-1832
▁toddle	-1833
fore	-1834
▁eats	-1835
▁gate	-1836
▁things	-1837
▁toddler	-1838
vy	-1839
nic	-1840
▁pointing	-1841
ned	-1842
▁ut	-1843
▁clouds	-1844
▁drawn	-1845
▁desert	-1846
▁assorted	-1847
br	-1848
▁chop	-1849
▁prop	-1850
▁compet	-1851
▁before	-1852
▁cups	-1853
read	-1854
▁card	-1855
▁closeup	-1856
go	-1857
▁eggs	-1858
ious	-1859
▁free	-1860
▁event	-1861
vert	-1862
▁neat	-1863
▁includ	-1864
irc	-1865
▁appe	-1866
▁doll	-1867
▁make	-1868
▁hold	-1869
▁vegg	-1870
▁glove	-1871
▁lunch	-1872
set	-1873
▁advert	-1874
▁mod	-1875
▁steps	-1876
▁construction	-1877
adow	-1878
▁cost	-1879
▁outfit	-1880
▁says	-1881
iff	-1882
arrow	-1883
▁coat	-1884
▁roof	-1885
ns	-1886
▁steep	-1887
eds	-1888
▁mini	-1889
▁atte	-1890
icks	-1891
ative	-1892
▁arms	-1893
ations	-1894
▁rackets	-1895
rushes	-1896
▁arranged	-1897
cture	-1898
▁circ	-1899
▁party	-1900
▁fig	-1901
▁costum	-1902
▁disc	-1903
▁picnic	-1904
▁cloth	-1905
▁floors	-1906
▁snowboarding	-1907
▁wheel	-1908
▁landing	-1909
▁pond	-1910
▁broken	-1911
▁electric	-1912
ps	-1913
▁trailer	-1914
phones	-1915
▁monitors	-1916
bs	-1917
▁closed	-1918
xing	-1919
▁mix	-1920
▁steam	-1921
▁overlooking	-1922
ia	-1923
▁spr	-1924
▁bottom	-1925
▁dep	-1926
▁lett	-1927
aches	-1928
▁type	-1929
▁friends	-1930
cakes	-1931
▁port	-1932
▁pots	-1933
▁tied	-1934
▁trans	-1935
uc	-1936
▁cage	-1937
▁graze	-1938
▁kneeling	-1939
▁ju	-1940
▁chef	-1941
key	-1942
▁wide	-1943
▁boarder	-1944
ung	-1945
▁narrow	-1946
▁must	-1947
az	-1948
▁anti	-1949
▁fight	-1950
▁mag	-1951
▁hous	-1952
li	-1953
uck	-1954
▁jo	-1955
▁fanc	-1956
▁pasta	-1957
ony	-1958
▁nap	-1959
▁messy	-1960
▁rider	-1961
▁overhead	-1962
▁orn	-1963
▁happ	-1964
▁colors	-1965
▁je	-1966
▁indo	-1967
▁reads	-1968
▁skating	-1969
▁himself	-1970
▁machine	-1971
na	-1972
so	-1973
ctor	-1974
▁opp	-1975
▁stra	-1976
▁carp	-1977
▁net	-1978
▁sale	-1979
▁bever	-1980
▁fancy	-1981
▁cakes	-1982
▁sides	-1983
▁commut	-1984
▁sweat	-1985
▁stru	-1986
uching	-1987
▁appears	-1988
▁ket	-1989
▁suits	-1990
▁leather	-1991
▁plain	-1992
▁chain	-1993
▁pract	-1994
▁walkway	-1995
▁towels	-1996
▁grill	-1997
▁ties	-1998
▁smart	-1999
▁carpet	-2000
▁sunset	-2001
▁transit	-2002
▁veggies	-2003
▁bite	-2004
▁cap	-2005
▁bik	-2006
▁rela	-2007
▁foreground	-2008
▁parti	-2009
▁action	-2010
▁features	-2011
ican	-2012
▁partially	-2013
▁bur	-2014
▁good	-2015
▁teen	-2016
▁pants	-2017
▁drive	-2018
▁shade	-2019
▁sport	-2020
ates	-2021
▁cas	-2022
▁pastries	-2023
▁antique	-2024
▁still	-2025
▁loaded	-2026
▁gl	-2027
ring	-2028
▁urban	-2029
▁beard	-2030
▁stret	-2031
▁pepperoni	-2032
▁mush	-2033
▁what	-2034
▁carrot	-2035
▁photos	-2036
▁toilets	-2037
▁mug	-2038
▁pier	-2039
▁enter	-2040
ators	-2041
▁doorway	-2042
▁mushroom	-2043
▁block	-2044
▁scoo	-2045
▁ship	-2046
▁clothing	-2047
▁commuter	-2048
▁mis	-2049
▁held	-2050
▁palm	-2051
▁shoul	-2052
▁refle	-2053
▁scooter	-2054
▁baked	-2055
▁device	-2056
▁hole	-2057
▁sill	-2058
▁toys	-2059
▁position	-2060
▁beneath	-2061
▁winter	-2062
▁wrapped	-2063
▁fashioned	-2064
▁leash	-2065
▁vis	-2066
▁lies	-2067
▁rust	-2068
▁smoke	-2069
▁pastry	-2070
▁racing	-2071
▁tomato	-2072
▁saus	-2073
▁kinds	-2074
▁blurry	-2075
me	-2076
house	-2077
▁gets	-2078
▁bull	-2079
imb	-2080
▁paw	-2081
▁toas	-2082
▁chips	-2083
▁makes	-2084
▁class	-2085
▁railing	-2086
▁giving	-2087
▁structure	-2088
ork	-2089
▁pee	-2090
▁harbor	-2091
▁sprink	-2092
▁contains	-2093
▁decorative	-2094
▁sy	-2095
▁pedestrians	-2096
▁fighter	-2097
ib	-2098
ne	-2099
▁supp	-2100
▁houses	-2101
▁apartment	-2102
cket	-2103
mon	-2104
range	-2105
▁model	-2106
▁mud	-2107
cker	-2108
very	-2109
▁feed	-2110
▁blond	-2111
▁island	-2112
▁lettuce	-2113
▁petting	-2114
▁wets	-2115
da	-2116
▁used	-2117
▁wetsuit	-2118
▁lid	-2119
▁seag	-2120
ighting	-2121
be	-2122
ering	-2123
▁garage	-2124
▁peppers	-2125
▁includes	-2126
▁seagull	-2127
▁sort	-2128
▁rests	-2129
▁sheet	-2130
▁self	-2131
▁use	-2132
▁comf	-2133
▁streets	-2134
act	-2135
▁fur	-2136
cting	-2137
▁spot	-2138
▁stun	-2139
ng	-2140
ught	-2141
▁med	-2142
▁containers	-2143
▁tur	-2144
eller	-2145
▁leading	-2146
ired	-2147
yard	-2148
▁dra	-2149
▁opened	-2150
▁prepared	-2151
▁gla	-2152
▁mit	-2153
▁mound	-2154
▁bunches	-2155
▁foll	-2156
acon	-2157
▁war	-2158
ef	-2159
▁vanity	-2160
▁produce	-2161
▁nood	-2162
▁multi	-2163
..	-2164
▁six	-2165
▁siz	-2166
▁leaf	-2167
▁ru	-2168
▁beans	-2169
▁return	-2170
sting	-2171
▁cele	-2172
lage	-2173
▁hall	-2174
▁scul	-2175
▁bacon	-2176
▁upside	-2177
idential	-2178
▁hats	-2179
▁here	-2180
▁barn	-2181
▁ripe	-2182
▁utens	-2183
▁waits	-2184
▁candle	-2185
▁writing	-2186
par	-2187
rop	-2188
▁lift	-2189
▁pans	-2190
▁rural	-2191
▁papers	-2192
▁propeller	-2193
▁chin	-2194
gon	-2195
▁these	-2196
▁brightly	-2197
▁shopping	-2198
▁strawber	-2199
▁pave	-2200
▁sculpt	-2201
▁turned	-2202
▁residential	-2203
▁hood	-2204
▁tiny	-2205
▁bush	-2206
▁nose	-2207
▁pr	-2208
▁sheets	-2209
▁pavement	-2210
▁heads	-2211
scap	-2212
▁smal	-2213
▁alongside	-2214
ible	-2215
unding	-2216
▁urinals	-2217
▁amer	-2218
hel	-2219
ier	-2220
itten	-2221
▁cond	-2222
▁juice	-2223
▁patio	-2224
▁paddle	-2225
▁personal	-2226
ray	-2227
▁tea	-2228
▁lamb	-2229
▁tank	-2230
▁soda	-2231
yclist	-2232
▁groom	-2233
▁snowboards	-2234
▁milk	-2235
▁meters	-2236
▁frosting	-2237
▁log	-2238
ield	-2239
▁happy	-2240
▁flight	-2241
▁stream	-2242
mo	-2243
bage	-2244
ital	-2245
▁rainy	-2246
▁remotes	-2247
▁cal	-2248
▁branches	-2249
▁touching	-2250
erly	-2251
▁egg	-2252
erial	-2253
ining	-2254
▁pres	-2255
▁gen	-2256
▁ducks	-2257
▁purse	-2258
▁smaller	-2259
▁directions	-2260
▁sem	-2261
▁laid	-2262
▁sized	-2263
▁parade	-2264
▁riders	-2265
▁cub	-2266
chup	-2267
▁ketchup	-2268
▁rear	-2269
▁itself	-2270
▁kicking	-2271
▁term	-2272
▁persons	-2273
▁displaying	-2274
ige	-2275
kin	-2276
▁eld	-2277
▁star	-2278
▁ladies	-2279
▁costume	-2280
ivid	-2281
▁loading	-2282
▁built	-2283
▁flags	-2284
▁lines	-2285
▁dresser	-2286
bile	-2287
▁exp	-2288
▁tent	-2289
▁officer	-2290
zer	-2291
▁mustard	-2292
▁terminal	-2293
▁leg	-2294
▁deep	-2295
▁only	-2296
▁noodles	-2297
aper	-2298
cked	-2299
▁char	-2300
▁mushrooms	-2301
▁beige	-2302
▁sausage	-2303
▁enclosed	-2304
▁decorations	-2305
▁ow	-2306
lies	-2307
▁stud	-2308
▁trays	-2309
▁waters	-2310
▁platter	-2311
▁glaz	-2312
▁sliding	-2313
▁utensils	-2314
▁american	-2315
▁bare	-2316
cra	-2317
▁uniforms	-2318
▁power	-2319
▁sailing	-2320
▁approaching	-2321
▁individ	-2322
ices	-2323
▁butter	-2324
▁shoe	-2325
▁pickup	-2326
▁elderly	-2327
ature	-2328
▁goes	-2329
▁pupp	-2330
ness	-2331
▁eye	-2332
▁throws	-2333
▁gas	-2334
▁course	-2335
▁sweater	-2336
ird	-2337
ster	-2338
▁rais	-2339
▁semi	-2340
▁uses	-2341
▁fried	-2342
▁leans	-2343
▁ornate	-2344
scape	-2345
▁pipe	-2346
▁collection	-2347
▁deli	-2348
mpting	-2349
▁vest	-2350
▁spect	-2351
▁greens	-2352
shirt	-2353
yclists	-2354
▁individual	-2355
▁ab	-2356
ushing	-2357
▁bride	-2358
▁hangs	-2359
▁posted	-2360
▁sim	-2361
▁mitt	-2362
▁most	-2363
▁laugh	-2364
▁sailbo	-2365
▁written	-2366
ior	-2367
▁liqu	-2368
▁paint	-2369
▁pulls	-2370
▁beverage	-2371
ory	-2372
▁growing	-2373
▁crosswalk	-2374
▁attempting	-2375
▁goats	-2376
▁indoor	-2377
▁transp	-2378
▁rolling	-2379
cted	-2380
▁cons	-2381
▁fake	-2382
▁stad	-2383
pas	-2384
allow	-2385
▁runs	-2386
▁toast	-2387
lled	-2388
craft	-2389
▁guit	-2390
▁neatly	-2391
▁stadium	-2392
ton	-2393
omot	-2394
▁climb	-2395
▁passes	-2396
▁jets	-2397
▁life	-2398
▁baskets	-2399
nel	-2400
▁if	-2401
ence	-2402
▁rows	-2403
▁na	-2404
case	-2405
▁locomot	-2406
ully	-2407
▁micro	-2408
▁surro	-2409
▁supplies	-2410
▁surrounding	-2411
gan	-2412
▁flor	-2413
▁potted	-2414
▁relaxing	-2415
als	-2416
cing	-2417
hill	-2418
ware	-2419
▁curled	-2420
▁bending	-2421
▁curtains	-2422
ging	-2423
▁lamps	-2424
▁roses	-2425
sted	-2426
▁pri	-2427
▁tops	-2428
▁roadway	-2429
▁shirtless	-2430
▁rope	-2431
ishing	-2432
▁missing	-2433
ues	-2434
▁tax	-2435
▁sold	-2436
▁how	-2437
▁duck	-2438
▁patter	-2439
▁airliner	-2440
▁tool	-2441
▁snack	-2442
▁wires	-2443
▁handle	-2444
▁siting	-2445
▁locomotive	-2446
▁por	-2447
rance	-2448
▁aircraft	-2449
bi	-2450
▁sticks	-2451
▁spectators	-2452
▁pet	-2453
▁muse	-2454
▁balls	-2455
▁sports	-2456
▁wheels	-2457
usk	-2458
▁da	-2459
▁ke	-2460
▁motion	-2461
▁museum	-2462
▁shadow	-2463
uffy	-2464
▁bell	-2465
▁glazed	-2466
▁frame	-2467
▁paved	-2468
▁packed	-2469
▁falling	-2470
▁dim	-2471
▁blow	-2472
▁tail	-2473
▁gentle	-2474
▁telephone	-2475
▁electronics	-2476
▁toothbrushes	-2477
dd	-2478
cake	-2479
▁speed	-2480
▁capt	-2481
▁bookshel	-2482
▁performs	-2483
▁ven	-2484
▁separ	-2485
▁celebr	-2486
▁practicing	-2487
lish	-2488
▁stool	-2489
▁wagon	-2490
▁guitar	-2491
▁arrange	-2492
▁without	-2493
▁ing	-2494
▁jeans	-2495
▁stunt	-2496
▁piled	-2497
▁floral	-2498
low	-2499
ares	-2500
▁shallow	-2501
▁aw	-2502
▁ang	-2503
▁fal	-2504
osite	-2505
▁remo	-2506
▁toss	-2507
▁section	-2508
▁sculpture	-2509
▁su	-2510
▁adj	-2511
▁tiles	-2512
bed	-2513
umer	-2514
▁trol	-2515
▁cycle	-2516
▁talks	-2517
▁selfie	-2518
▁advertise	-2519
▁arrangement	-2520
redi	-2521
▁frisbe	-2522
▁ingredi	-2523
▁mirrors	-2524
line	-2525
▁soft	-2526
▁delic	-2527
▁also	-2528
▁dead	-2529
▁numer	-2530
bow	-2531
ured	-2532
▁flip	-2533
▁pine	-2534
▁cupboard	-2535
▁formation	-2536
▁fir	-2537
▁fing	-2538
▁hors	-2539
▁garbage	-2540
▁shoulder	-2541
▁landscape	-2542
▁cop	-2543
▁hum	-2544
▁bank	-2545
▁fast	-2546
▁flown	-2547
▁hea	-2548
akers	-2549
▁cupcakes	-2550
time	-2551
▁paras	-2552
▁hotdogs	-2553
▁homemade	-2554
▁ingredients	-2555
▁advertisement	-2556
▁tong	-2557
▁toaster	-2558
cking	-2559
▁bucket	-2560
▁covering	-2561
▁pedestrian	-2562
▁selling	-2563
▁opposite	-2564
aged	-2565
▁you	-2566
▁spread	-2567
▁freezer	-2568
▁images	-2569
▁jetliner	-2570
▁skateboarders	-2571
ute	-2572
▁exh	-2573
asing	-2574
▁sniff	-2575
▁holder	-2576
bur	-2577
▁patch	-2578
▁fluffy	-2579
▁travels	-2580
▁buff	-2581
▁cones	-2582
▁tongue	-2583
▁objects	-2584
▁sprinkles	-2585
ste	-2586
abit	-2587
▁corn	-2588
▁pitching	-2589
▁inf	-2590
▁rus	-2591
eback	-2592
essor	-2593
▁hits	-2594
▁workers	-2595
▁horseback	-2596
▁foc	-2597
▁muff	-2598
ways	-2599
▁coll	-2600
▁fallen	-2601
▁downhill	-2602
▁puppy	-2603
cts	-2604
▁icing	-2605
▁mixed	-2606
▁newsp	-2607
▁asleep	-2608
▁marble	-2609
▁pushing	-2610
▁blankets	-2611
▁competition	-2612
ancing	-2613
▁headphones	-2614
▁strawberries	-2615
lit	-2616
▁sha	-2617
▁stuck	-2618
umin	-2619
▁habit	-2620
▁motorbi	-2621
▁counters	-2622
▁snowboarders	-2623
▁fin	-2624
▁faces	-2625
▁rolls	-2626
▁skirt	-2627
▁visible	-2628
▁pictured	-2629
▁aut	-2630
▁lab	-2631
▁stoplight	-2632
▁cer	-2633
▁mop	-2634
▁golden	-2635
▁entrance	-2636
▁checkered	-2637
ckey	-2638
▁tab	-2639
▁neon	-2640
▁whole	-2641
▁washing	-2642
▁blonde	-2643
▁string	-2644
▁gathering	-2645
▁rep	-2646
aming	-2647
▁shirts	-2648
▁slopes	-2649
▁balloon	-2650
▁climbing	-2651
ooks	-2652
▁item	-2653
▁organ	-2654
▁habitat	-2655
▁cargo	-2656
▁wears	-2657
▁frosted	-2658
fully	-2659
▁reaches	-2660
▁dump	-2661
▁featuring	-2662
▁photograp	-2663
ked	-2664
ooked	-2665
▁even	-2666
▁bit	-2667
bbing	-2668
ipped	-2669
▁leap	-2670
▁moves	-2671
▁range	-2672
▁officers	-2673
▁someones	-2674
▁stickers	-2675
▁delicious	-2676
▁transport	-2677
ondon	-2678
▁chil	-2679
▁magn	-2680
▁obser	-2681
oned	-2682
ising	-2683
▁shiny	-2684
▁pouring	-2685
ho	-2686
▁name	-2687
▁carries	-2688
lives	-2689
▁feeder	-2690
▁napkin	-2691
ished	-2692
▁covers	-2693
▁olives	-2694
▁microphone	-2695
asty	-2696
▁far	-2697
▁pige	-2698
▁furnis	-2699
▁london	-2700
ount	-2701
▁focus	-2702
▁great	-2703
oming	-2704
▁condim	-2705
▁batting	-2706
▁rainbow	-2707
▁interior	-2708
▁basketball	-2709
▁exten	-2710
▁first	-2711
▁loung	-2712
▁cookies	-2713
▁laughing	-2714
▁bul	-2715
▁tun	-2716
orter	-2717
▁backs	-2718
▁figur	-2719
▁haired	-2720
▁liquid	-2721
▁blowing	-2722
boy	-2723
ders	-2724
▁fan	-2725
▁wing	-2726
▁exhib	-2727
▁hills	-2728
ountain	-2729
▁gravel	-2730
▁hambur	-2731
py	-2732
iers	-2733
▁ahead	-2734
▁potato	-2735
▁fountain	-2736
▁desserts	-2737
dling	-2738
▁beef	-2739
▁enjoy	-2740
▁grilled	-2741
▁bou	-2742
▁fre	-2743
▁prin	-2744
▁thin	-2745
▁checking	-2746
▁cleaning	-2747
▁jar	-2748
▁bunk	-2749
▁teenag	-2750
▁miniature	-2751
ied	-2752
van	-2753
ental	-2754
▁indic	-2755
▁opening	-2756
aked	-2757
▁cust	-2758
▁fishing	-2759
▁lighting	-2760
▁cardboard	-2761
uzz	-2762
▁br	-2763
wood	-2764
▁aud	-2765
▁arch	-2766
▁saf	-2767
▁shape	-2768
▁comple	-2769
▁mobile	-2770
▁den	-2771
▁alley	-2772
▁controls	-2773
▁sug	-2774
▁rusty	-2775
rial	-2776
▁inst	-2777
▁shru	-2778
▁tools	-2779
▁turning	-2780
▁proc	-2781
▁trav	-2782
▁booth	-2783
▁marin	-2784
▁cowboy	-2785
▁trolley	-2786
ail	-2787
▁foil	-2788
▁tabby	-2789
▁displays	-2790
▁bookshelf	-2791
▁entertain	-2792
rot	-2793
ited	-2794
▁pin	-2795
▁sad	-2796
ience	-2797
▁goat	-2798
ugging	-2799
▁plaid	-2800
▁condiments	-2801
was	-2802
▁chees	-2803
▁muddy	-2804
▁newspaper	-2805
▁mac	-2806
▁vol	-2807
▁clay	-2808
▁pickle	-2809
▁catches	-2810
▁herself	-2811
▁located	-2812
▁flooring	-2813
▁nic	-2814
▁fold	-2815
▁spin	-2816
▁carts	-2817
▁seats	-2818
▁rusted	-2819
amic	-2820
icol	-2821
▁bra	-2822
▁odd	-2823
▁cano	-2824
▁cran	-2825
▁every	-2826
▁indust	-2827
▁exhibit	-2828
▁travelling	-2829
stri	-2830
ently	-2831
▁leag	-2832
erries	-2833
spital	-2834
▁depic	-2835
▁countertop	-2836
▁cere	-2837
▁unmade	-2838
▁hospital	-2839
▁av	-2840
▁multicol	-2841
▁ic	-2842
▁stir	-2843
▁gloves	-2844
▁forward	-2845
▁industrial	-2846
umm	-2847
anta	-2848
▁rad	-2849
▁sec	-2850
▁bent	-2851
▁size	-2852
▁spray	-2853
▁jockey	-2854
▁dot	-2855
ither	-2856
▁magaz	-2857
▁custom	-2858
▁meadow	-2859
thy	-2860
nect	-2861
▁onl	-2862
▁balc	-2863
▁cafe	-2864
▁lane	-2865
▁hallway	-2866
▁sus	-2867
▁matt	-2868
▁aerial	-2869
▁attire	-2870
▁either	-2871
▁ceramic	-2872
▁sharing	-2873
amp	-2874
men	-2875
mpt	-2876
most	-2877
eting	-2878
▁taxi	-2879
decker	-2880
▁crust	-2881
▁series	-2882
▁thrown	-2883
▁brushes	-2884
▁helping	-2885
▁steeple	-2886
▁pancakes	-2887
wh	-2888
▁groc	-2889
▁posed	-2890
▁comforter	-2891
▁nat	-2892
washer	-2893
▁stage	-2894
▁syste	-2895
▁driver	-2896
▁grapes	-2897
▁accessor	-2898
▁ill	-2899
brary	-2900
▁calm	-2901
▁neigh	-2902
▁words	-2903
▁league	-2904
▁library	-2905
▁accessories	-2906
▁uni	-2907
▁calf	-2908
▁nicely	-2909
▁freshly	-2910
▁following	-2911
▁dishwasher	-2912
erry	-2913
iled	-2914
▁bill	-2915
▁main	-2916
▁steak	-2917
▁biting	-2918
▁stares	-2919
here	-2920
▁seems	-2921
▁wings	-2922
▁multicolored	-2923
arf	-2924
▁lif	-2925
▁bagg	-2926
▁more	-2927
▁twin	-2928
▁cliff	-2929
attered	-2930
▁burger	-2931
▁sleeps	-2932
gged	-2933
town	-2934
▁gaz	-2935
▁own	-2936
▁para	-2937
▁chest	-2938
▁almost	-2939
▁father	-2940
▁mostly	-2941
▁chasing	-2942
▁statues	-2943
▁neighbor	-2944
▁watering	-2945
▁band	-2946
▁chili	-2947
▁santa	-2948
▁onlook	-2949
▁chinese	-2950
▁connect	-2951
▁heading	-2952
▁mattress	-2953
▁seagulls	-2954
▁countryside	-2955
hood	-2956
▁ado	-2957
▁jumb	-2958
▁picking	-2959
▁frisbees	-2960
▁paws	-2961
▁baking	-2962
▁sle	-2963
▁apron	-2964
▁coach	-2965
▁heart	-2966
▁tasty	-2967
▁railway	-2968
▁matching	-2969
gress	-2970
▁mans	-2971
▁grand	-2972
▁marina	-2973
▁bouquet	-2974
▁hugging	-2975
bble	-2976
work	-2977
▁dig	-2978
▁canop	-2979
▁teams	-2980
▁amongst	-2981
▁balcony	-2982
▁designed	-2983
▁tas	-2984
▁cush	-2985
▁iron	-2986
▁system	-2987
▁gentleman	-2988
ux	-2989
▁aband	-2990
▁horns	-2991
zen	-2992
▁ge	-2993
▁comb	-2994
▁funny	-2995
▁cushion	-2996
▁foreign	-2997
ctive	-2998
ility	-2999
▁read	-3000
▁suspen	-3001
▁straight	-3002
▁advertising	-3003
▁neighborhood	-3004
▁cru	-3005
stand	-3006
▁serv	-3007
▁arrow	-3008
▁tunnel	-3009
allic	-3010
ument	-3011
▁sugar	-3012
▁larger	-3013
ral	-3014
▁cuts	-3015
▁dryer	-3016
▁heavy	-3017
▁thick	-3018
▁bakery	-3019
▁sniffing	-3020
▁hamburger	-3021
rage	-3022
▁ribb	-3023
isting	-3024
▁jumbo	-3025
▁collar	-3026
▁baggage	-3027
▁chopped	-3028
▁convers	-3029
▁tractor	-3030
▁metallic	-3031
ker	-3032
▁cig	-3033
▁owner	-3034
▁buffet	-3035
▁trunks	-3036
▁leaving	-3037
▁sunlight	-3038
▁abandoned	-3039
oc	-3040
iet	-3041
ried	-3042
▁fans	-3043
▁hose	-3044
▁mask	-3045
▁vend	-3046
▁lemon	-3047
▁winds	-3048
▁prepare	-3049
ette	-3050
▁beg	-3051
▁story	-3052
▁works	-3053
▁typing	-3054
▁ori	-3055
▁poster	-3056
▁worker	-3057
sel	-3058
▁fed	-3059
▁fixt	-3060
▁move	-3061
▁attempt	-3062
▁chewing	-3063
▁natural	-3064
hers	-3065
▁tin	-3066
▁cool	-3067
▁sets	-3068
▁warm	-3069
▁resort	-3070
▁weather	-3071
▁motorbike	-3072
olf	-3073
ater	-3074
quets	-3075
▁dusk	-3076
▁dimly	-3077
▁folded	-3078
▁driveway	-3079
ano	-3080
use	-3081
▁tor	-3082
▁jers	-3083
▁rose	-3084
▁tries	-3085
▁busses	-3086
▁downtown	-3087
▁entertainment	-3088
ront	-3089
▁cold	-3090
▁pony	-3091
▁rails	-3092
▁audience	-3093
▁el	-3094
▁lim	-3095
▁mom	-3096
ption	-3097
▁unus	-3098
▁candy	-3099
▁castle	-3100
▁formal	-3101
▁framed	-3102
▁jersey	-3103
▁circular	-3104
▁hung	-3105
▁cases	-3106
gy	-3107
urf	-3108
ters	-3109
▁ris	-3110
▁mass	-3111
▁boots	-3112
▁strol	-3113
▁finger	-3114
▁turkey	-3115
▁bearded	-3116
▁motorcyclist	-3117
pl	-3118
met	-3119
▁pop	-3120
▁prote	-3121
▁devices	-3122
▁shining	-3123
▁progress	-3124
▁connected	-3125
▁onlookers	-3126
▁organized	-3127
▁lighthouse	-3128
aret	-3129
ival	-3130
▁bars	-3131
▁cigaret	-3132
▁cupcake	-3133
▁helmets	-3134
▁magnets	-3135
▁propped	-3136
▁hi	-3137
illa	-3138
▁sla	-3139
rable	-3140
▁cupboards	-3141
▁bay	-3142
▁tho	-3143
ightly	-3144
▁sailboat	-3145
▁son	-3146
▁bund	-3147
▁gran	-3148
▁guard	-3149
▁dispen	-3150
▁contents	-3151
ades	-3152
lower	-3153
app	-3154
▁obst	-3155
▁piano	-3156
▁canopy	-3157
▁hiding	-3158
▁tablet	-3159
▁evening	-3160
▁lounging	-3161
▁ring	-3162
▁upon	-3163
coming	-3164
▁level	-3165
▁quiet	-3166
▁follow	-3167
▁besides	-3168
▁tossing	-3169
▁racquets	-3170
▁swe	-3171
chair	-3172
dered	-3173
▁adjus	-3174
▁chefs	-3175
▁point	-3176
▁storage	-3177
▁adorable	-3178
▁backyard	-3179
▁fab	-3180
▁ple	-3181
▁unc	-3182
alley	-3183
▁males	-3184
▁porch	-3185
▁savan	-3186
▁scarf	-3187
zy	-3188
ggy	-3189
ives	-3190
▁desc	-3191
▁ears	-3192
▁golf	-3193
▁pump	-3194
▁shut	-3195
▁furry	-3196
▁kitty	-3197
▁bikers	-3198
▁obstac	-3199
▁parrot	-3200
▁reflected	-3201
▁flood	-3202
▁monkey	-3203
▁raised	-3204
▁grocery	-3205
▁illumin	-3206
▁belt	-3207
ipping	-3208
▁barrel	-3209
▁wilder	-3210
▁licking	-3211
od	-3212
vely	-3213
▁rec	-3214
▁oper	-3215
▁daytime	-3216
▁separate	-3217
▁silverware	-3218
tor	-3219
angu	-3220
vated	-3221
▁lambs	-3222
▁order	-3223
colored	-3224
▁spinach	-3225
▁hardwood	-3226
ord	-3227
mons	-3228
istic	-3229
▁inte	-3230
▁skiis	-3231
▁saying	-3232
▁present	-3233
▁scattered	-3234
ze	-3235
eled	-3236
▁heal	-3237
▁grazes	-3238
▁simple	-3239
▁savanna	-3240
▁warning	-3241
▁wilderness	-3242
▁lear	-3243
▁langu	-3244
▁collage	-3245
▁freight	-3246
▁football	-3247
tru	-3248
inds	-3249
▁awa	-3250
▁squat	-3251
▁fabric	-3252
▁unique	-3253
▁crosses	-3254
arp	-3255
med	-3256
▁ba	-3257
▁ath	-3258
ungle	-3259
▁word	-3260
▁music	-3261
▁produ	-3262
▁strip	-3263
▁cookie	-3264
▁lemons	-3265
▁shaking	-3266
▁smoking	-3267
▁balancing	-3268
ta	-3269
ests	-3270
▁bats	-3271
▁gogg	-3272
▁thumb	-3273
▁jungle	-3274
za	-3275
▁dust	-3276
▁fair	-3277
▁logs	-3278
▁bikini	-3279
▁clutter	-3280
▁comfort	-3281
▁magazine	-3282
▁stretching	-3283
ka	-3284
▁mel	-3285
▁tag	-3286
▁pean	-3287
▁peeking	-3288
ounge	-3289
▁pand	-3290
▁than	-3291
▁leafy	-3292
▁played	-3293
▁really	-3294
▁safety	-3295
▁goggles	-3296
▁screens	-3297
no	-3298
▁fauc	-3299
▁sizes	-3300
▁amount	-3301
▁friend	-3302
▁lounge	-3303
▁parach	-3304
▁delivery	-3305
▁tourists	-3306
▁decoration	-3307
where	-3308
▁talk	-3309
▁balan	-3310
▁moped	-3311
▁circle	-3312
▁drawers	-3313
▁numerous	-3314
selves	-3315
▁storm	-3316
▁ladder	-3317
▁peeled	-3318
▁suspended	-3319
ided	-3320
▁nuts	-3321
▁terra	-3322
▁volley	-3323
▁wo	-3324
ider	-3325
front	-3326
uddle	-3327
▁rece	-3328
▁cigarette	-3329
▁themselves	-3330
aker	-3331
▁sne	-3332
▁tus	-3333
▁cher	-3334
▁plan	-3335
▁skin	-3336
▁fixing	-3337
▁indoors	-3338
lers	-3339
▁ant	-3340
▁ador	-3341
▁tire	-3342
illing	-3343
▁ribbon	-3344
rib	-3345
anger	-3346
▁wash	-3347
ooters	-3348
▁pairs	-3349
▁fighting	-3350
pper	-3351
▁fest	-3352
▁need	-3353
▁crane	-3354
▁figure	-3355
▁pickles	-3356
▁classroom	-3357
▁courtyard	-3358
aks	-3359
its	-3360
dled	-3361
▁link	-3362
▁muffin	-3363
▁shorel	-3364
▁pigeons	-3365
▁balloons	-3366
▁complete	-3367
▁towering	-3368
▁bin	-3369
▁plaza	-3370
▁surfs	-3371
▁cereal	-3372
▁service	-3373
▁scooters	-3374
▁shoreline	-3375
hol	-3376
uri	-3377
▁reg	-3378
▁lean	-3379
orting	-3380
▁healthy	-3381
▁sticker	-3382
▁strange	-3383
▁furnished	-3384
▁cellphones	-3385
ilt	-3386
paste	-3387
▁care	-3388
▁goal	-3389
▁canoe	-3390
▁closet	-3391
▁students	-3392
▁motorcyclists	-3393
▁str	-3394
▁army	-3395
▁buns	-3396
▁load	-3397
▁soap	-3398
▁foggy	-3399
▁stops	-3400
▁rustic	-3401
▁process	-3402
▁beverages	-3403
▁consisting	-3404
▁toothpaste	-3405
▁photographs	-3406
pass	-3407
▁cone	-3408
▁wear	-3409
▁barri	-3410
▁tusks	-3411
resting	-3412
▁vegetation	-3413
gu	-3414
▁grin	-3415
▁knit	-3416
▁trim	-3417
▁shops	-3418
▁project	-3419
▁skyline	-3420
▁obstacle	-3421
ha	-3422
▁mall	-3423
▁shri	-3424
▁points	-3425
▁slightly	-3426
▁det	-3427
▁fat	-3428
▁too	-3429
▁comes	-3430
▁panda	-3431
covered	-3432
▁berries	-3433
▁oriental	-3434
▁softball	-3435
lines	-3436
▁arri	-3437
▁haul	-3438
▁spac	-3439
▁arena	-3440
▁speakers	-3441
hou	-3442
rat	-3443
unk	-3444
oney	-3445
▁lob	-3446
wards	-3447
▁burn	-3448
▁bedsp	-3449
▁noteb	-3450
▁shrimp	-3451
▁valley	-3452
▁designs	-3453
▁meeting	-3454
gie	-3455
▁act	-3456
▁bugg	-3457
▁puts	-3458
▁headed	-3459
▁silhou	-3460
▁pedestal	-3461
▁sideways	-3462
▁observing	-3463
ws	-3464
tie	-3465
▁pens	-3466
▁peace	-3467
▁wading	-3468
▁positioned	-3469
▁maj	-3470
▁vil	-3471
▁caul	-3472
▁eleg	-3473
▁slow	-3474
raying	-3475
▁fully	-3476
▁split	-3477
iflower	-3478
▁groups	-3479
▁bathing	-3480
▁crossed	-3481
▁slicing	-3482
▁village	-3483
▁fixtures	-3484
▁paddling	-3485
▁dispenser	-3486
▁approaches	-3487
alo	-3488
ret	-3489
val	-3490
▁eu	-3491
oose	-3492
▁may	-3493
▁conve	-3494
▁airlines	-3495
▁catchers	-3496
▁material	-3497
▁waterway	-3498
ama	-3499
toon	-3500
▁exc	-3501
▁beak	-3502
▁cans	-3503
▁keep	-3504
▁spla	-3505
▁relax	-3506
▁direct	-3507
▁vendor	-3508
▁grabbing	-3509
ls	-3510
▁min	-3511
▁wand	-3512
▁confe	-3513
▁snacks	-3514
▁elegant	-3515
▁granite	-3516
▁attempts	-3517
▁reflecting	-3518
ebo	-3519
ope	-3520
icle	-3521
▁lis	-3522
right	-3523
shing	-3524
▁euro	-3525
▁kept	-3526
▁will	-3527
▁reach	-3528
▁faucet	-3529
▁classic	-3530
▁leaping	-3531
▁teenager	-3532
▁illuminated	-3533
att	-3534
▁fol	-3535
rence	-3536
▁ware	-3537
▁seven	-3538
▁caught	-3539
▁waving	-3540
▁monument	-3541
▁sailboats	-3542
▁cauliflower	-3543
mer	-3544
▁any	-3545
▁cuc	-3546
▁alco	-3547
▁bald	-3548
▁slee	-3549
▁colle	-3550
▁forks	-3551
▁cheesy	-3552
▁cucumb	-3553
▁repair	-3554
▁trough	-3555
▁lighted	-3556
▁numbers	-3557
▁bedspread	-3558
icop	-3559
▁desks	-3560
▁layer	-3561
▁knives	-3562
▁drawing	-3563
▁helicop	-3564
▁patterned	-3565
▁conversation	-3566
ined	-3567
▁wre	-3568
▁blur	-3569
▁trop	-3570
▁goods	-3571
▁heard	-3572
▁tight	-3573
▁peanut	-3574
▁flooded	-3575
▁unusual	-3576
af	-3577
ift	-3578
▁bor	-3579
▁kay	-3580
▁diam	-3581
▁exam	-3582
▁raft	-3583
▁seas	-3584
urious	-3585
▁leads	-3586
▁married	-3587
▁had	-3588
white	-3589
▁clus	-3590
▁coast	-3591
▁button	-3592
▁cobble	-3593
▁europe	-3594
▁herding	-3595
▁es	-3596
▁kis	-3597
▁mov	-3598
▁much	-3599
▁tags	-3600
▁second	-3601
▁diamond	-3602
▁interesting	-3603
▁,	-3604
▁sup	-3605
▁deer	-3606
▁skater	-3607
▁spoons	-3608
▁greenery	-3609
▁tropical	-3610
boat	-3611
cast	-3612
ific	-3613
▁basin	-3614
▁dried	-3615
▁ostri	-3616
▁within	-3617
▁freeway	-3618
▁terrain	-3619
▁strapped	-3620
▁individuals	-3621
▁fry	-3622
▁ins	-3623
▁owl	-3624
▁pus	-3625
cloth	-3626
ctory	-3627
▁keys	-3628
▁recor	-3629
▁portra	-3630
▁helicopter	-3631
▁nightstand	-3632
▁bad	-3633
▁hip	-3634
▁unf	-3635
ities	-3636
▁conso	-3637
▁piles	-3638
▁quilt	-3639
▁roman	-3640
▁turns	-3641
▁boogie	-3642
▁tasting	-3643
▁stopping	-3644
kins	-3645
labor	-3646
dition	-3647
ughter	-3648
▁autom	-3649
▁eight	-3650
angular	-3651
ination	-3652
▁convey	-3653
▁doubles	-3654
▁massive	-3655
▁pattern	-3656
▁roaming	-3657
▁tablecloth	-3658
▁celebrating	-3659
pid	-3660
▁now	-3661
▁atten	-3662
▁compan	-3663
▁stable	-3664
▁cartoon	-3665
▁upright	-3666
▁costumes	-3667
fts	-3668
▁eas	-3669
▁poss	-3670
▁site	-3671
▁canal	-3672
▁ornam	-3673
▁listen	-3674
▁utility	-3675
▁cellular	-3676
▁overpass	-3677
▁soldiers	-3678
▁spraying	-3679
▁windsurf	-3680
▁conference	-3681
▁transportation	-3682
gging	-3683
▁human	-3684
▁airbor	-3685
▁garnis	-3686
▁shades	-3687
▁english	-3688
▁factory	-3689
▁pineapp	-3690
▁figurine	-3691
▁photographer	-3692
ole	-3693
dles	-3694
▁blu	-3695
▁peel	-3696
▁recl	-3697
▁buggy	-3698
▁tents	-3699
▁drying	-3700
▁parent	-3701
▁stance	-3702
▁indicating	-3703
uld	-3704
▁mi	-3705
▁div	-3706
▁pug	-3707
▁come	-3708
▁prot	-3709
▁gives	-3710
▁polka	-3711
▁histor	-3712
▁handing	-3713
▁wrapper	-3714
▁language	-3715
apan	-3716
drop	-3717
▁eag	-3718
▁map	-3719
▁rol	-3720
oored	-3721
▁knee	-3722
▁prov	-3723
▁tape	-3724
▁text	-3725
▁waff	-3726
▁depot	-3727
▁japan	-3728
▁print	-3729
▁console	-3730
▁elevated	-3731
▁bis	-3732
▁dec	-3733
▁cree	-3734
▁unlo	-3735
▁bagel	-3736
▁drawer	-3737
▁parasa	-3738
▁adjusting	-3739
▁hal	-3740
▁rect	-3741
▁tiss	-3742
▁brief	-3743
▁curve	-3744
▁posts	-3745
▁weird	-3746
▁elabor	-3747
▁hooked	-3748
▁boarders	-3749
▁grinding	-3750
▁notebook	-3751
vi	-3752
bag	-3753
ably	-3754
hand	-3755
▁fix	-3756
▁brit	-3757
▁butt	-3758
▁crib	-3759
▁wake	-3760
sticks	-3761
▁ident	-3762
▁thing	-3763
▁themed	-3764
▁winding	-3765
▁airborne	-3766
▁extended	-3767
▁learning	-3768
pers	-3769
rome	-3770
▁tex	-3771
▁jars	-3772
▁circus	-3773
▁mashed	-3774
▁cleaned	-3775
▁backdrop	-3776
▁portrait	-3777
▁speaking	-3778
▁compartment	-3779
ico	-3780
idy	-3781
urs	-3782
ared	-3783
▁blood	-3784
▁canad	-3785
▁geese	-3786
▁naked	-3787
▁hangar	-3788
▁alcohol	-3789
▁include	-3790
▁products	-3791
▁savannah	-3792
▁parachute	-3793
ky	-3794
ula	-3795
ened	-3796
eter	-3797
ised	-3798
▁dro	-3799
▁cloud	-3800
▁float	-3801
▁grown	-3802
▁oppon	-3803
▁babies	-3804
▁wicker	-3805
▁drivers	-3806
▁teenage	-3807
sa	-3808
alt	-3809
ert	-3810
▁tim	-3811
oping	-3812
▁dest	-3813
▁love	-3814
▁begin	-3815
▁frying	-3816
▁rowing	-3817
▁kissing	-3818
▁signals	-3819
▁toasted	-3820
▁overcast	-3821
▁windowsill	-3822
suit	-3823
▁flav	-3824
vering	-3825
▁carry	-3826
▁cathe	-3827
▁instr	-3828
▁third	-3829
ditional	-3830
▁farmers	-3831
▁jackets	-3832
▁pathway	-3833
▁daughter	-3834
▁festival	-3835
▁practice	-3836
▁headboard	-3837
den	-3838
▁imp	-3839
▁amid	-3840
▁china	-3841
▁metro	-3842
▁snugg	-3843
▁world	-3844
▁youth	-3845
▁thumbs	-3846
▁cathedr	-3847
▁chained	-3848
▁seating	-3849
▁customers	-3850
▁squatting	-3851
▁u	-3852
▁ip	-3853
▁tig	-3854
stone	-3855
ugged	-3856
▁trio	-3857
ending	-3858
▁digital	-3859
▁hauling	-3860
▁message	-3861
▁stroller	-3862
▁billboard	-3863
▁cathedral	-3864
▁figurines	-3865
ode	-3866
view	-3867
▁tux	-3868
andel	-3869
▁skil	-3870
▁such	-3871
▁blueb	-3872
▁extra	-3873
▁photographed	-3874
des	-3875
▁emb	-3876
▁lie	-3877
▁pod	-3878
▁asph	-3879
▁thre	-3880
ational	-3881
▁carous	-3882
▁uncooked	-3883
▁backpacks	-3884
▁depicting	-3885
life	-3886
▁worn	-3887
▁afric	-3888
▁crack	-3889
▁meats	-3890
▁sails	-3891
▁british	-3892
▁package	-3893
▁artistic	-3894
ipp	-3895
scra	-3896
▁rot	-3897
▁sol	-3898
▁note	-3899
▁gravy	-3900
▁medium	-3901
▁plains	-3902
▁scenic	-3903
▁towing	-3904
▁african	-3905
▁special	-3906
▁sneakers	-3907
cy	-3908
ude	-3909
▁id	-3910
▁stom	-3911
▁barbe	-3912
▁knees	-3913
▁pears	-3914
▁racks	-3915
▁appear	-3916
▁chrome	-3917
▁roller	-3918
▁shines	-3919
▁asphalt	-3920
▁attract	-3921
▁commode	-3922
▁skyscra	-3923
▁carousel	-3924
▁staircase	-3925
ops	-3926
▁disk	-3927
▁barbed	-3928
▁kettle	-3929
▁closely	-3930
▁placing	-3931
▁shuttle	-3932
▁conveyor	-3933
▁returning	-3934
▁warehouse	-3935
▁ger	-3936
▁pig	-3937
▁call	-3938
▁chan	-3939
▁hind	-3940
▁major	-3941
▁cluster	-3942
▁powdered	-3943
▁competing	-3944
▁strawberry	-3945
rup	-3946
urt	-3947
ient	-3948
ills	-3949
▁bean	-3950
▁cent	-3951
▁grab	-3952
▁tube	-3953
▁cruise	-3954
▁marked	-3955
▁stalls	-3956
▁adorned	-3957
▁planter	-3958
▁printer	-3959
▁stomach	-3960
▁keyboards	-3961
▁chopsticks	-3962
ai	-3963
ains	-3964
otic	-3965
▁rob	-3966
truck	-3967
▁camp	-3968
▁conf	-3969
▁emer	-3970
▁ones	-3971
▁cable	-3972
▁cooks	-3973
▁force	-3974
▁lobby	-3975
▁press	-3976
▁donkey	-3977
▁places	-3978
▁stripes	-3979
▁tourist	-3980
▁deserted	-3981
▁directly	-3982
▁selection	-3983
elly	-3984
▁coo	-3985
ately	-3986
attoo	-3987
deled	-3988
ution	-3989
▁anch	-3990
▁foli	-3991
▁trip	-3992
▁inspe	-3993
▁calico	-3994
▁crates	-3995
▁shrubs	-3996
▁towers	-3997
▁muffins	-3998
▁rocking	-3999
▁roadside	-4000
▁electrical	-4001
amb	-4002
gen	-4003
▁gy	-4004
ells	-4005
osed	-4006
▁pay	-4007
▁coke	-4008
▁memb	-4009
▁were	-4010
▁newly	-4011
▁subur	-4012
▁suite	-4013
▁super	-4014
▁pocket	-4015
▁tattoo	-4016
▁foliage	-4017
▁soldier	-4018
▁entering	-4019
▁stationary	-4020
ath	-4021
▁ki	-4022
▁sat	-4023
▁sau	-4024
▁help	-4025
▁mixt	-4026
▁rubb	-4027
▁when	-4028
▁crate	-4029
▁extre	-4030
▁macar	-4031
▁slide	-4032
▁sweet	-4033
▁trave	-4034
▁potter	-4035
▁puddle	-4036
▁stools	-4037
▁stores	-4038
▁barrier	-4039
▁curious	-4040
▁ostrich	-4041
▁bookcase	-4042
▁opponent	-4043
▁boardwalk	-4044
▁stretched	-4045
▁raw	-4046
▁suv	-4047
▁tee	-4048
▁yog	-4049
ively	-4050
uched	-4051
▁dual	-4052
▁gour	-4053
▁meas	-4054
▁array	-4055
▁names	-4056
▁midair	-4057
▁podium	-4058
▁archite	-4059
▁cubicle	-4060
▁mixture	-4061
▁european	-4062
▁interact	-4063
▁stepping	-4064
▁crouching	-4065
▁paintings	-4066
ummy	-4067
ments	-4068
▁logo	-4069
▁diner	-4070
▁rings	-4071
▁scrat	-4072
▁sharp	-4073
▁tiger	-4074
▁frozen	-4075
▁shapes	-4076
▁harness	-4077
▁balances	-4078
▁intently	-4079
▁wildlife	-4080
▁shoulders	-4081
▁wheelchair	-4082
ccup	-4083
▁cud	-4084
▁fog	-4085
▁gun	-4086
▁tro	-4087
▁dash	-4088
▁envi	-4089
▁loaf	-4090
▁mane	-4091
▁unit	-4092
father	-4093
▁dusty	-4094
▁ferry	-4095
▁necks	-4096
▁checks	-4097
▁runner	-4098
▁competit	-4099
▁dressing	-4100
▁listening	-4101
▁silhouette	-4102
▁streetlight	-4103
alle	-4104
rong	-4105
▁ble	-4106
▁vac	-4107
▁nest	-4108
▁priv	-4109
▁antel	-4110
▁radio	-4111
ronment	-4112
▁infant	-4113
▁leaned	-4114
▁maroon	-4115
▁partly	-4116
▁artwork	-4117
▁chandel	-4118
▁macaroni	-4119
▁bicyclist	-4120
▁uniformed	-4121
▁environment	-4122
cue	-4123
amas	-4124
ions	-4125
lain	-4126
▁limb	-4127
▁thru	-4128
▁feeds	-4129
▁tuxed	-4130
▁tagged	-4131
▁express	-4132
▁outfits	-4133
▁parasol	-4134
▁rubbing	-4135
▁texting	-4136
▁operating	-4137
▁policeman	-4138
▁grandfather	-4139
▁rectangular	-4140
ou	-4141
ams	-4142
rit	-4143
cept	-4144
like	-4145
▁dip	-4146
▁dug	-4147
▁emp	-4148
▁nur	-4149
▁paj	-4150
▁claim	-4151
▁stump	-4152
▁syrup	-4153
▁cherry	-4154
▁indian	-4155
▁blurred	-4156
▁spotted	-4157
▁spacious	-4158
▁starting	-4159
ino	-4160
utes	-4161
▁def	-4162
▁mes	-4163
▁try	-4164
atula	-4165
▁bump	-4166
▁angle	-4167
▁apart	-4168
▁holid	-4169
▁lodge	-4170
▁shots	-4171
▁touch	-4172
▁blinds	-4173
▁floats	-4174
▁inform	-4175
▁dipping	-4176
▁excited	-4177
▁peering	-4178
▁signage	-4179
▁skillet	-4180
▁spatula	-4181
▁elaborate	-4182
▁refrigerators	-4183
car	-4184
ots	-4185
▁ox	-4186
acks	-4187
▁pies	-4188
ically	-4189
▁craft	-4190
▁needs	-4191
▁curved	-4192
▁serves	-4193
▁tissue	-4194
▁caption	-4195
▁figures	-4196
▁speeding	-4197
▁grassland	-4198
▁stretches	-4199
ye	-4200
▁gym	-4201
▁kno	-4202
amboo	-4203
▁quick	-4204
▁athlet	-4205
▁bamboo	-4206
▁hitter	-4207
▁skinny	-4208
▁stacks	-4209
▁fingers	-4210
▁flipping	-4211
▁remodeled	-4212
▁sprinkled	-4213
▁teenagers	-4214
▁cobblestone	-4215
emb	-4216
lat	-4217
▁si	-4218
ales	-4219
ibly	-4220
▁hut	-4221
▁ran	-4222
field	-4223
▁else	-4224
▁tuck	-4225
▁unri	-4226
celain	-4227
▁demon	-4228
▁movie	-4229
▁ships	-4230
▁shrubb	-4231
▁porcelain	-4232
▁bicyclists	-4233
fall	-4234
▁menu	-4235
▁sauc	-4236
▁tidy	-4237
acting	-4238
▁dozen	-4239
▁sofas	-4240
▁start	-4241
▁weeds	-4242
inished	-4243
▁letter	-4244
▁pajamas	-4245
▁younger	-4246
▁pineapple	-4247
▁somewhere	-4248
mar	-4249
icip	-4250
▁dam	-4251
▁ram	-4252
▁san	-4253
ckets	-4254
▁junk	-4255
▁rode	-4256
▁alarm	-4257
▁biker	-4258
▁parts	-4259
▁plush	-4260
▁entree	-4261
▁skiier	-4262
▁stunts	-4263
▁bowling	-4264
▁engaged	-4265
▁clearing	-4266
▁japanese	-4267
▁mountainous	-4268
orn	-4269
umn	-4270
▁led	-4271
plane	-4272
▁cast	-4273
▁done	-4274
▁jelly	-4275
▁spots	-4276
▁rubber	-4277
▁washer	-4278
▁glowing	-4279
▁gourmet	-4280
▁holiday	-4281
▁appliance	-4282
▁carriages	-4283
▁identical	-4284
▁'	-4285
▁ave	-4286
▁ton	-4287
▁file	-4288
▁hear	-4289
▁jeep	-4290
▁pork	-4291
▁real	-4292
▁clown	-4293
▁rough	-4294
▁bigger	-4295
▁farmer	-4296
▁treats	-4297
▁viewed	-4298
▁balance	-4299
▁awaiting	-4300
▁shrubbery	-4301
▁furnishing	-4302
▁traditional	-4303
▁esc	-4304
▁goo	-4305
obile	-4306
▁aven	-4307
▁mail	-4308
▁motel	-4309
▁shred	-4310
▁barren	-4311
▁german	-4312
▁handic	-4313
▁united	-4314
▁cooling	-4315
▁suburban	-4316
▁unfinished	-4317
po	-4318
ipe	-4319
off	-4320
ora	-4321
ushi	-4322
▁pil	-4323
▁iced	-4324
▁rabb	-4325
▁ottom	-4326
fashion	-4327
▁banner	-4328
▁gaming	-4329
▁pigeon	-4330
▁dancing	-4331
▁pitched	-4332
▁automobile	-4333
fo	-4334
ma	-4335
cuit	-4336
pris	-4337
unch	-4338
▁fer	-4339
▁haw	-4340
aging	-4341
ilted	-4342
ishes	-4343
▁king	-4344
▁penc	-4345
▁reno	-4346
▁tech	-4347
▁york	-4348
▁bulls	-4349
▁bunny	-4350
▁sushi	-4351
▁tying	-4352
▁avenue	-4353
▁celery	-4354
▁cutter	-4355
▁moored	-4356
▁upward	-4357
▁altered	-4358
▁engines	-4359
fashioned	-4360
▁chickens	-4361
▁separated	-4362
izon	-4363
▁doz	-4364
▁fit	-4365
▁lime	-4366
▁navy	-4367
▁mural	-4368
▁notes	-4369
▁pengu	-4370
▁plent	-4371
▁swung	-4372
▁contra	-4373
▁hiking	-4374
▁lining	-4375
▁handbag	-4376
▁protest	-4377
▁viewing	-4378
▁equipped	-4379
▁stripped	-4380
▁attractive	-4381
▁chandelier	-4382
alled	-4383
▁cubs	-4384
▁shag	-4385
▁summ	-4386
shield	-4387
▁eagle	-4388
▁maker	-4389
▁ovens	-4390
▁silly	-4391
▁towed	-4392
▁treat	-4393
▁garlic	-4394
▁biscuit	-4395
▁buttons	-4396
▁hipster	-4397
▁lifting	-4398
▁crackers	-4399
▁possibly	-4400
▁teaching	-4401
het	-4402
yed	-4403
uzzy	-4404
▁bid	-4405
▁cot	-4406
▁cock	-4407
▁lead	-4408
▁pads	-4409
▁fuzzy	-4410
▁local	-4411
▁opens	-4412
▁wallp	-4413
▁hoodie	-4414
▁locked	-4415
▁walled	-4416
▁windshield	-4417
rie	-4418
park	-4419
tern	-4420
▁hun	-4421
▁mer	-4422
▁que	-4423
▁mean	-4424
▁peas	-4425
▁roas	-4426
▁tram	-4427
▁wool	-4428
▁bends	-4429
▁falls	-4430
▁outst	-4431
▁steer	-4432
▁blocks	-4433
▁horned	-4434
▁yogurt	-4435
▁compact	-4436
▁company	-4437
▁handles	-4438
▁happily	-4439
▁horizon	-4440
▁letting	-4441
▁necktie	-4442
▁breaking	-4443
▁forested	-4444
▁outfield	-4445
een	-4446
ugs	-4447
aves	-4448
foot	-4449
noon	-4450
▁adm	-4451
▁fle	-4452
dless	-4453
imate	-4454
uments	-4455
▁attent	-4456
▁retrie	-4457
▁shaggy	-4458
▁tuxedo	-4459
▁grouped	-4460
▁letters	-4461
▁whipped	-4462
▁afternoon	-4463
flow	-4464
onal	-4465
▁dun	-4466
▁fut	-4467
▁rim	-4468
▁aged	-4469
▁foam	-4470
▁champ	-4471
▁crest	-4472
▁bullet	-4473
▁ottoman	-4474
▁ridding	-4475
▁blocking	-4476
▁crouched	-4477
▁pitchers	-4478
▁unloading	-4479
▁waterfall	-4480
▁playground	-4481
▁furnishings	-4482
▁interacting	-4483
▁windsurfing	-4484
ooth	-4485
▁pir	-4486
acent	-4487
ually	-4488
▁avoc	-4489
▁pane	-4490
▁situ	-4491
uminum	-4492
▁delta	-4493
▁grizz	-4494
▁money	-4495
vention	-4496
▁called	-4497
▁dozens	-4498
▁hanger	-4499
▁poised	-4500
▁slides	-4501
▁stripe	-4502
▁butterf	-4503
▁surpris	-4504
▁outstret	-4505
▁toiletries	-4506
box	-4507
kers	-4508
andal	-4509
ivity	-4510
▁tort	-4511
▁wrap	-4512
ulated	-4513
▁coats	-4514
▁scale	-4515
▁visit	-4516
▁avocad	-4517
▁guests	-4518
▁females	-4519
▁humming	-4520
▁portion	-4521
▁stained	-4522
▁watched	-4523
▁adjacent	-4524
▁aluminum	-4525
▁sausages	-4526
law	-4527
▁hud	-4528
▁ipod	-4529
▁spar	-4530
leslaw	-4531
▁dolls	-4532
▁emplo	-4533
▁roast	-4534
▁theme	-4535
flowers	-4536
▁belong	-4537
▁halves	-4538
▁plenty	-4539
▁preten	-4540
▁unripe	-4541
▁dinning	-4542
▁pointed	-4543
▁powered	-4544
▁strings	-4545
▁coleslaw	-4546
▁feathers	-4547
▁followed	-4548
▁firetruck	-4549
▁parasailing	-4550
▁outstretched	-4551
gn	-4552
ua	-4553
bee	-4554
the	-4555
wear	-4556
▁vic	-4557
acter	-4558
thing	-4559
▁carn	-4560
▁cong	-4561
▁gall	-4562
▁page	-4563
▁shed	-4564
▁leave	-4565
▁cycles	-4566
▁vandal	-4567
▁caution	-4568
▁distant	-4569
▁flatbed	-4570
▁gliding	-4571
▁perches	-4572
▁pottery	-4573
▁provide	-4574
▁directing	-4575
ics	-4576
pan	-4577
▁rh	-4578
temp	-4579
yond	-4580
▁oil	-4581
izing	-4582
osing	-4583
▁cola	-4584
▁sled	-4585
▁cards	-4586
▁manne	-4587
▁panel	-4588
▁setup	-4589
▁swans	-4590
latable	-4591
▁beyond	-4592
▁bricks	-4593
▁diving	-4594
▁driven	-4595
▁dugout	-4596
▁mixing	-4597
▁pillar	-4598
▁poking	-4599
▁relish	-4600
▁contemp	-4601
▁folding	-4602
▁grasses	-4603
▁peeling	-4604
▁character	-4605
▁convention	-4606
▁inflatable	-4607
og	-4608
ache	-4609
alks	-4610
ilar	-4611
▁asc	-4612
▁cit	-4613
▁ult	-4614
▁wax	-4615
green	-4616
▁news	-4617
▁spro	-4618
▁stew	-4619
▁aspar	-4620
▁sleek	-4621
▁saddle	-4622
▁skates	-4623
▁bedding	-4624
▁cabbage	-4625
▁mannequ	-4626
▁members	-4627
▁similar	-4628
▁flowered	-4629
▁wandering	-4630
▁sweatshirt	-4631
▁bb	-4632
tled	-4633
vily	-4634
▁club	-4635
▁cops	-4636
▁pets	-4637
▁robe	-4638
▁swan	-4639
▁vast	-4640
▁zone	-4641
▁embra	-4642
▁heels	-4643
▁hilly	-4644
▁holes	-4645
▁pipes	-4646
▁socks	-4647
▁rabbit	-4648
▁cyclist	-4649
▁heavily	-4650
▁quickly	-4651
▁antelope	-4652
▁crouches	-4653
▁steering	-4654
▁backwards	-4655
▁cucumbers	-4656
▁comfortable	-4657
iner	-4658
▁pal	-4659
▁pel	-4660
▁tug	-4661
▁bidet	-4662
▁could	-4663
▁gazel	-4664
▁herbs	-4665
▁roads	-4666
berries	-4667
▁cooler	-4668
▁sewing	-4669
▁smooth	-4670
▁plugged	-4671
▁private	-4672
▁speaker	-4673
▁measuring	-4674
bu	-4675
aff	-4676
ern	-4677
ien	-4678
mel	-4679
tra	-4680
▁tr	-4681
agus	-4682
arth	-4683
book	-4684
mbol	-4685
vest	-4686
▁dom	-4687
▁kiw	-4688
▁tet	-4689
inger	-4690
▁cord	-4691
▁ever	-4692
▁miss	-4693
▁refe	-4694
▁span	-4695
achers	-4696
▁bites	-4697
▁ramps	-4698
▁route	-4699
▁descri	-4700
▁mantle	-4701
▁nearly	-4702
▁symbol	-4703
▁accents	-4704
▁complet	-4705
▁raising	-4706
▁stocked	-4707
▁wheeled	-4708
▁anchored	-4709
▁location	-4710
▁situated	-4711
▁tortilla	-4712
▁asparagus	-4713
▁vandalized	-4714
con	-4715
str	-4716
▁hom	-4717
count	-4718
illed	-4719
▁scru	-4720
▁slab	-4721
▁leaps	-4722
▁marsh	-4723
▁state	-4724
▁times	-4725
▁consum	-4726
▁decked	-4727
▁kneels	-4728
▁liquor	-4729
▁melted	-4730
▁rolled	-4731
▁carrier	-4732
▁champag	-4733
▁grizzly	-4734
▁barefoot	-4735
▁chopping	-4736
▁numerals	-4737
▁portable	-4738
▁storefront	-4739
ana	-4740
ased	-4741
iced	-4742
▁nuzz	-4743
▁appet	-4744
▁broad	-4745
▁assemb	-4746
▁capped	-4747
▁carved	-4748
▁corral	-4749
▁croiss	-4750
▁discus	-4751
▁social	-4752
▁sparse	-4753
▁unable	-4754
▁airline	-4755
▁current	-4756
▁knitted	-4757
▁demonstr	-4758
▁champagne	-4759
▁sculptures	-4760
▁interactive	-4761
band	-4762
bird	-4763
▁bbq	-4764
▁nes	-4765
▁pon	-4766
▁sco	-4767
▁ske	-4768
▁tul	-4769
▁bend	-4770
▁boun	-4771
▁brus	-4772
▁exit	-4773
▁rams	-4774
▁reve	-4775
▁helps	-4776
▁midst	-4777
▁overs	-4778
▁share	-4779
▁thats	-4780
▁threw	-4781
▁casser	-4782
▁mopeds	-4783
▁smiley	-4784
▁squash	-4785
▁posters	-4786
▁cyclists	-4787
▁smelling	-4788
▁travelers	-4789
hua	-4790
yle	-4791
chan	-4792
lete	-4793
rest	-4794
▁jam	-4795
▁sex	-4796
▁ital	-4797
▁lego	-4798
▁stem	-4799
▁temp	-4800
▁areas	-4801
▁creek	-4802
▁grape	-4803
▁kayak	-4804
▁price	-4805
▁those	-4806
country	-4807
▁iphone	-4808
▁powder	-4809
▁shaded	-4810
▁though	-4811
▁layered	-4812
▁finished	-4813
▁dashboard	-4814
▁materials	-4815
▁wallpaper	-4816
▁smartphone	-4817
▁information	-4818
ids	-4819
oms	-4820
▁lon	-4821
amese	-4822
iring	-4823
orary	-4824
▁dorm	-4825
▁oval	-4826
▁polo	-4827
▁rasp	-4828
▁spre	-4829
▁cages	-4830
▁meals	-4831
▁mixer	-4832
▁shake	-4833
▁plated	-4834
▁strike	-4835
▁stating	-4836
▁tending	-4837
▁airfield	-4838
▁incoming	-4839
▁training	-4840
▁motorbikes	-4841
▁washington	-4842
▁instruments	-4843
ury	-4844
ower	-4845
▁rel	-4846
aghet	-4847
dress	-4848
▁coca	-4849
▁whit	-4850
▁brand	-4851
▁crown	-4852
▁crumb	-4853
▁faced	-4854
▁prepar	-4855
▁pushed	-4856
▁slowly	-4857
▁studio	-4858
▁tucked	-4859
▁biplane	-4860
▁medical	-4861
▁spaghet	-4862
▁takeoff	-4863
▁meatball	-4864
▁casserole	-4865
▁surprised	-4866
▁completely	-4867
▁protective	-4868
can	-4869
vet	-4870
ense	-4871
▁dad	-4872
▁las	-4873
▁mex	-4874
▁mor	-4875
▁won	-4876
eaten	-4877
gency	-4878
▁mugs	-4879
▁perf	-4880
▁sour	-4881
▁basil	-4882
▁blind	-4883
▁cords	-4884
▁rapid	-4885
▁croche	-4886
▁pirate	-4887
▁saucer	-4888
▁summer	-4889
▁filling	-4890
▁huddled	-4891
▁labeled	-4892
▁serious	-4893
▁touches	-4894
▁beginning	-4895
▁briefcase	-4896
▁emergency	-4897
▁skatepark	-4898
▁spaghetti	-4899
▁cheesecake	-4900
▁colorfully	-4901
▁celebration	-4902
vd	-4903
yl	-4904
lymp	-4905
angle	-4906
▁plow	-4907
anging	-4908
▁caged	-4909
▁lower	-4910
▁maneu	-4911
▁olymp	-4912
▁rodeo	-4913
▁squir	-4914
▁stare	-4915
▁stems	-4916
▁stock	-4917
▁canoes	-4918
▁dragon	-4919
▁lonely	-4920
▁soaked	-4921
▁veggie	-4922
▁college	-4923
▁dresses	-4924
▁flaming	-4925
▁paralle	-4926
▁soaring	-4927
▁waffles	-4928
▁mustache	-4929
▁watermel	-4930
▁combination	-4931
arn	-4932
end	-4933
aped	-4934
▁ges	-4935
▁rise	-4936
▁accom	-4937
▁allow	-4938
▁angry	-4939
▁perch	-4940
▁taped	-4941
▁tires	-4942
▁upper	-4943
▁landed	-4944
▁athlete	-4945
▁napkins	-4946
▁nothing	-4947
▁hydrants	-4948
▁blueberries	-4949
▁comfortably	-4950
▁instruction	-4951
ki	-4952
ouf	-4953
▁er	-4954
▁ol	-4955
rely	-4956
sters	-4957
▁crew	-4958
▁rele	-4959
▁border	-4960
▁conver	-4961
▁fields	-4962
▁barrels	-4963
▁shaving	-4964
▁singing	-4965
▁opposing	-4966
▁parallel	-4967
▁installed	-4968
▁scratching	-4969
▁volleyball	-4970
▁presentation	-4971
du	-4972
▁amb	-4973
▁non	-4974
colli	-4975
▁vert	-4976
▁yarn	-4977
acters	-4978
▁limit	-4979
▁queen	-4980
igating	-4981
▁bushel	-4982
▁camouf	-4983
▁chains	-4984
▁sauces	-4985
▁tiered	-4986
▁tulips	-4987
▁buffalo	-4988
▁camping	-4989
▁clearly	-4990
▁gesture	-4991
▁stretch	-4992
▁brocolli	-4993
▁canadian	-4994
▁featured	-4995
▁machines	-4996
▁oncoming	-4997
▁bleachers	-4998
▁cabinetry	-4999
▁nighttime	-5000
▁characters	-5001
▁directional	-5002
kn	-5003
ote	-5004
ners	-5005
▁nav	-5006
▁ome	-5007
▁yet	-5008
aling	-5009
uting	-5010
▁brow	-5011
▁cram	-5012
▁rand	-5013
▁tusk	-5014
▁twig	-5015
▁penguin	-5016
▁printed	-5017
▁carpeted	-5018
▁darkened	-5019
▁presents	-5020
▁mountainside	-5021
ex	-5022
aco	-5023
vil	-5024
mely	-5025
▁deb	-5026
ebody	-5027
▁best	-5028
▁ends	-5029
▁nine	-5030
▁shep	-5031
▁cemet	-5032
▁entry	-5033
▁lifts	-5034
▁quite	-5035
▁skull	-5036
▁change	-5037
▁draped	-5038
▁instru	-5039
▁makeup	-5040
▁states	-5041
▁wallet	-5042
▁artific	-5043
▁perfect	-5044
▁relaxes	-5045
▁barbecue	-5046
▁shelving	-5047
▁somebody	-5048
▁sporting	-5049
▁ultimate	-5050
▁cloudless	-5051
▁preparation	-5052
atic	-5053
eler	-5054
itch	-5055
▁oct	-5056
eties	-5057
lined	-5058
▁aler	-5059
▁bron	-5060
▁deta	-5061
▁fill	-5062
▁occup	-5063
▁recei	-5064
▁begins	-5065
▁breast	-5066
▁bundle	-5067
▁frames	-5068
▁gazing	-5069
▁picked	-5070
▁styled	-5071
▁tanger	-5072
▁damaged	-5073
▁marking	-5074
▁musical	-5075
▁regular	-5076
▁siamese	-5077
▁steamed	-5078
▁consists	-5079
▁greeting	-5080
▁tethered	-5081
▁extremely	-5082
▁policemen	-5083
▁varieties	-5084
▁department	-5085
▁bookshelves	-5086
zing	-5087
▁aqu	-5088
▁nut	-5089
▁coin	-5090
▁lens	-5091
▁moon	-5092
▁tarp	-5093
undred	-5094
▁curly	-5095
▁honey	-5096
▁sight	-5097
▁wrest	-5098
▁choppy	-5099
▁season	-5100
▁jockeys	-5101
▁parents	-5102
▁everyone	-5103
▁historic	-5104
▁official	-5105
▁shredded	-5106
▁motorized	-5107
▁projector	-5108
▁artificial	-5109
fl	-5110
▁ni	-5111
▁vi	-5112
ises	-5113
what	-5114
▁aim	-5115
▁got	-5116
▁hur	-5117
▁icy	-5118
▁lux	-5119
▁rod	-5120
atory	-5121
▁bins	-5122
▁boul	-5123
▁cozy	-5124
▁friz	-5125
▁know	-5126
ippers	-5127
▁bulld	-5128
▁south	-5129
▁taxis	-5130
▁camper	-5131
▁enjoys	-5132
▁invest	-5133
▁neckla	-5134
▁random	-5135
▁deserts	-5136
▁exposed	-5137
▁hundred	-5138
▁paddles	-5139
▁telling	-5140
▁trainer	-5141
▁arriving	-5142
▁carnival	-5143
▁everything	-5144
cot	-5145
▁oak	-5146
▁sep	-5147
estri	-5148
▁easy	-5149
▁hook	-5150
▁pant	-5151
▁tick	-5152
▁curvy	-5153
▁polit	-5154
▁sword	-5155
▁glides	-5156
▁extends	-5157
▁follows	-5158
▁mexican	-5159
▁sanding	-5160
▁skiiers	-5161
▁sprouts	-5162
▁somewhat	-5163
▁stirring	-5164
▁butterfly	-5165
▁countertops	-5166
ara	-5167
cut	-5168
▁my	-5169
stop	-5170
▁gad	-5171
▁sid	-5172
wning	-5173
▁horn	-5174
▁mote	-5175
▁rese	-5176
▁trek	-5177
▁ambul	-5178
▁doesn	-5179
▁filed	-5180
▁gradu	-5181
▁kicks	-5182
▁peaco	-5183
▁peers	-5184
▁sepia	-5185
inesses	-5186
▁awning	-5187
▁vacant	-5188
▁buckets	-5189
▁flowing	-5190
▁garnish	-5191
▁italian	-5192
▁morning	-5193
▁support	-5194
▁accompan	-5195
▁crashing	-5196
▁cucumber	-5197
▁president	-5198
▁businesses	-5199
▁microwaves	-5200
▁watermelon	-5201
▁competitive	-5202
aint	-5203
zard	-5204
inder	-5205
▁give	-5206
▁pale	-5207
▁tide	-5208
vation	-5209
▁graph	-5210
▁olive	-5211
▁vests	-5212
▁arched	-5213
▁debris	-5214
▁finish	-5215
▁jumped	-5216
▁metrop	-5217
▁omelet	-5218
▁strewn	-5219
▁airways	-5220
▁avocado	-5221
▁burning	-5222
▁cameras	-5223
▁exiting	-5224
▁referee	-5225
▁student	-5226
▁accident	-5227
▁balanced	-5228
▁rounding	-5229
▁evergreen	-5230
▁architecture	-5231
nam	-5232
dant	-5233
itan	-5234
oise	-5235
▁caf	-5236
▁pac	-5237
▁lion	-5238
▁yach	-5239
▁early	-5240
▁limes	-5241
▁medic	-5242
▁obama	-5243
▁today	-5244
▁turqu	-5245
▁carton	-5246
▁gadget	-5247
▁mechan	-5248
▁rather	-5249
▁safari	-5250
▁sniffs	-5251
▁spices	-5252
▁strong	-5253
▁cafeter	-5254
▁nestled	-5255
▁nursing	-5256
▁equestri	-5257
▁striking	-5258
▁overlooks	-5259
▁decorating	-5260
▁everywhere	-5261
▁historical	-5262
▁propellers	-5263
min	-5264
rab	-5265
rid	-5266
ums	-5267
oram	-5268
pipe	-5269
rons	-5270
stal	-5271
used	-5272
▁lip	-5273
▁web	-5274
▁wig	-5275
▁woo	-5276
berry	-5277
▁beat	-5278
▁flan	-5279
▁grow	-5280
▁kiss	-5281
▁kiwi	-5282
▁smot	-5283
lights	-5284
▁belly	-5285
▁hello	-5286
▁homes	-5287
▁liner	-5288
▁paste	-5289
▁racer	-5290
▁windy	-5291
station	-5292
▁autumn	-5293
▁plaque	-5294
▁rising	-5295
▁rotten	-5296
▁stones	-5297
▁submer	-5298
▁batters	-5299
▁removed	-5300
▁warming	-5301
▁backhand	-5302
▁metropol	-5303
▁attention	-5304
▁cafeteria	-5305
▁smothered	-5306
▁turquoise	-5307
▁hummingbird	-5308
pie	-5309
tes	-5310
uis	-5311
dges	-5312
rict	-5313
turn	-5314
▁cry	-5315
▁lat	-5316
iator	-5317
ified	-5318
lapid	-5319
▁mous	-5320
▁sexy	-5321
▁shoo	-5322
liners	-5323
▁escal	-5324
▁gated	-5325
▁grabs	-5326
▁noses	-5327
▁pours	-5328
▁pregn	-5329
▁sells	-5330
▁shady	-5331
▁stars	-5332
▁lovely	-5333
▁kittens	-5334
lapidated	-5335
▁cemetery	-5336
▁underwear	-5337
▁raspberries	-5338
▁skyscrapers	-5339
▁kiteboarding	-5340
amed	-5341
rets	-5342
wise	-5343
ament	-5344
apers	-5345
▁late	-5346
▁meet	-5347
▁slaw	-5348
▁then	-5349
shaped	-5350
▁alert	-5351
▁earth	-5352
▁found	-5353
▁lives	-5354
▁marker	-5355
▁skills	-5356
▁depicts	-5357
▁lounges	-5358
▁cuddling	-5359
▁district	-5360
▁flavored	-5361
▁mirrored	-5362
▁particip	-5363
▁garnished	-5364
▁submerged	-5365
mat	-5366
ney	-5367
food	-5368
aster	-5369
rispy	-5370
using	-5371
▁craw	-5372
▁mill	-5373
▁trey	-5374
▁west	-5375
estern	-5376
esting	-5377
▁blows	-5378
▁drain	-5379
▁faded	-5380
▁lanes	-5381
gerator	-5382
unching	-5383
▁bagels	-5384
▁buying	-5385
▁crafts	-5386
▁crowds	-5387
▁passed	-5388
▁speeds	-5389
▁wonder	-5390
▁compete	-5391
▁gazelle	-5392
▁shadows	-5393
▁facility	-5394
▁pregnant	-5395
▁expression	-5396
cul	-5397
mes	-5398
ppo	-5399
foam	-5400
lane	-5401
lets	-5402
shes	-5403
▁est	-5404
▁mem	-5405
▁tar	-5406
▁wok	-5407
bread	-5408
fruit	-5409
▁glow	-5410
▁leas	-5411
▁less	-5412
▁mesh	-5413
▁rugs	-5414
▁torn	-5415
▁burnt	-5416
▁dance	-5417
▁resid	-5418
▁rises	-5419
▁stalk	-5420
▁techn	-5421
▁bumper	-5422
▁legged	-5423
▁linens	-5424
▁waffle	-5425
▁appetiz	-5426
▁bricked	-5427
▁digging	-5428
▁milking	-5429
▁hundreds	-5430
▁trailing	-5431
▁wireless	-5432
▁ambulance	-5433
▁embracing	-5434
▁gentlemen	-5435
▁indicates	-5436
▁snuggling	-5437
▁splashing	-5438
▁belongings	-5439
▁metropolitan	-5440
airy	-5441
alog	-5442
ngth	-5443
tock	-5444
▁buy	-5445
bbles	-5446
dated	-5447
ready	-5448
▁auto	-5449
▁boot	-5450
▁dais	-5451
▁mama	-5452
▁styl	-5453
▁chalk	-5454
▁condu	-5455
▁dairy	-5456
▁knick	-5457
▁picks	-5458
▁retro	-5459
▁wines	-5460
▁busted	-5461
▁commun	-5462
▁intric	-5463
▁pushes	-5464
▁ridden	-5465
▁carving	-5466
▁milling	-5467
▁smoothie	-5468
▁wetsuits	-5469
▁wrapping	-5470
▁magazines	-5471
▁paperwork	-5472
▁camouflage	-5473
▁dilapidated	-5474
pa	-5475
oid	-5476
reo	-5477
sion	-5478
tage	-5479
▁hid	-5480
▁inv	-5481
arian	-5482
ister	-5483
lings	-5484
urity	-5485
▁clim	-5486
▁gone	-5487
haired	-5488
rofoam	-5489
▁beers	-5490
▁ropes	-5491
▁dotted	-5492
▁except	-5493
▁lifted	-5494
▁mouths	-5495
▁retail	-5496
▁splash	-5497
▁cracked	-5498
▁guiding	-5499
▁knocked	-5500
▁patrons	-5501
▁shelter	-5502
▁vending	-5503
▁athletic	-5504
▁medicine	-5505
▁security	-5506
▁grapefruit	-5507
▁skyscraper	-5508
cd	-5509
erc	-5510
zza	-5511
come	-5512
▁fis	-5513
▁inc	-5514
ening	-5515
ilies	-5516
▁juic	-5517
▁moss	-5518
▁seed	-5519
▁twil	-5520
▁label	-5521
▁oddly	-5522
▁rooms	-5523
▁seeds	-5524
▁sided	-5525
▁spire	-5526
▁sunsh	-5527
▁tired	-5528
▁amidst	-5529
▁bronze	-5530
▁canada	-5531
▁raises	-5532
▁already	-5533
▁blocked	-5534
▁crystal	-5535
▁frizbee	-5536
▁holders	-5537
▁incline	-5538
▁partial	-5539
▁remains	-5540
▁vendors	-5541
▁wheeler	-5542
▁admiring	-5543
▁cherries	-5544
▁daylight	-5545
▁pumpkins	-5546
▁squirrel	-5547
▁tabletop	-5548
▁twilight	-5549
▁washroom	-5550
▁attending	-5551
▁condition	-5552
▁escalator	-5553
▁examining	-5554
▁lettering	-5555
▁livestock	-5556
▁processor	-5557
▁styrofoam	-5558
▁inspecting	-5559
▁pretending	-5560
▁sunflowers	-5561
▁transporting	-5562
gin	-5563
oro	-5564
▁fu	-5565
bled	-5566
▁chi	-5567
▁cin	-5568
▁dol	-5569
▁job	-5570
▁var	-5571
▁wro	-5572
▁buss	-5573
▁cact	-5574
▁chat	-5575
▁lite	-5576
▁orch	-5577
▁pita	-5578
▁teal	-5579
▁your	-5580
▁bells	-5581
▁docks	-5582
▁goose	-5583
▁octop	-5584
▁patri	-5585
▁arrows	-5586
▁backed	-5587
▁barely	-5588
▁boxing	-5589
▁exotic	-5590
▁should	-5591
▁triple	-5592
▁archway	-5593
▁bottled	-5594
▁caboose	-5595
▁pillars	-5596
▁sandals	-5597
▁seafood	-5598
▁squares	-5599
▁decorate	-5600
▁describe	-5601
▁grouping	-5602
▁necklace	-5603
▁visitors	-5604
▁equestrian	-5605
▁destination	-5606
fu	-5607
omb	-5608
reg	-5609
▁cd	-5610
bank	-5611
▁lam	-5612
▁typ	-5613
anted	-5614
▁barb	-5615
▁diag	-5616
▁dome	-5617
▁duff	-5618
▁enth	-5619
▁hawk	-5620
▁push	-5621
▁samp	-5622
▁tofu	-5623
▁cerem	-5624
▁gates	-5625
▁hairy	-5626
▁purch	-5627
▁shell	-5628
▁citrus	-5629
▁mascot	-5630
▁patrol	-5631
▁stored	-5632
▁tilted	-5633
▁walked	-5634
▁bundled	-5635
▁napping	-5636
▁olympic	-5637
▁paneled	-5638
▁panoram	-5639
▁returns	-5640
▁captured	-5641
▁deckered	-5642
▁formally	-5643
▁hovering	-5644
▁platters	-5645
▁otherwise	-5646
▁reclining	-5647
▁stoplights	-5648
▁tangerines	-5649
▁televisions	-5650
ala	-5651
▁rv	-5652
back	-5653
erst	-5654
uses	-5655
▁ais	-5656
▁alp	-5657
▁jew	-5658
▁wel	-5659
namon	-5660
strip	-5661
▁cane	-5662
▁claw	-5663
▁frog	-5664
▁gown	-5665
▁neut	-5666
ycling	-5667
▁overg	-5668
▁recre	-5669
▁sound	-5670
athered	-5671
pective	-5672
▁access	-5673
▁barric	-5674
▁calcul	-5675
▁hovers	-5676
▁length	-5677
▁adjusts	-5678
▁contest	-5679
▁pencils	-5680
▁roasted	-5681
▁typical	-5682
▁cinnamon	-5683
▁littered	-5684
▁radiator	-5685
▁snowsuit	-5686
▁trashcan	-5687
▁mannequin	-5688
▁sectional	-5689
▁accompanied	-5690
ize	-5691
usi	-5692
▁pc	-5693
hich	-5694
reme	-5695
▁aff	-5696
▁ann	-5697
▁spi	-5698
▁tip	-5699
piece	-5700
▁fist	-5701
▁kits	-5702
▁sear	-5703
iently	-5704
turned	-5705
▁basic	-5706
▁flips	-5707
▁gener	-5708
▁grain	-5709
▁pilot	-5710
▁remod	-5711
▁scram	-5712
▁spark	-5713
▁burrit	-5714
▁calves	-5715
▁goalie	-5716
▁grinds	-5717
▁heater	-5718
▁owners	-5719
▁record	-5720
▁divided	-5721
▁fixture	-5722
▁puppies	-5723
▁taxiing	-5724
▁function	-5725
▁packages	-5726
▁appearing	-5727
▁ascending	-5728
▁contemporary	-5729
▁advertisements	-5730
ith	-5731
our	-5732
lent	-5733
orth	-5734
raut	-5735
▁anc	-5736
▁jug	-5737
▁ofa	-5738
brush	-5739
bucks	-5740
cause	-5741
itude	-5742
lable	-5743
▁cole	-5744
▁dalm	-5745
▁hazy	-5746
▁seem	-5747
▁spir	-5748
▁whis	-5749
enting	-5750
ormous	-5751
▁aisle	-5752
▁amuse	-5753
▁lapse	-5754
▁laund	-5755
▁robot	-5756
▁would	-5757
▁analog	-5758
▁biking	-5759
▁ginger	-5760
▁hidden	-5761
▁hooded	-5762
▁native	-5763
▁spring	-5764
▁tanker	-5765
▁washed	-5766
▁wiping	-5767
▁ancient	-5768
▁beached	-5769
▁because	-5770
▁bulldog	-5771
▁monster	-5772
▁peacock	-5773
▁pumpkin	-5774
▁shepher	-5775
▁ceremony	-5776
▁enormous	-5777
▁examines	-5778
▁handicap	-5779
▁reflects	-5780
▁stairway	-5781
▁extending	-5782
▁sandwhich	-5783
▁starbucks	-5784
▁reflective	-5785
ebe	-5786
lor	-5787
▁gn	-5788
▁ya	-5789
hold	-5790
iche	-5791
▁fas	-5792
ppost	-5793
style	-5794
▁avai	-5795
▁clad	-5796
▁dang	-5797
▁fine	-5798
▁fora	-5799
▁sund	-5800
▁ther	-5801
▁vent	-5802
▁flash	-5803
▁hedge	-5804
▁named	-5805
▁spars	-5806
▁troph	-5807
looking	-5808
▁creepy	-5809
▁height	-5810
▁refrid	-5811
▁waling	-5812
▁candies	-5813
▁cramped	-5814
▁enthusi	-5815
▁handleb	-5816
▁markers	-5817
▁scenery	-5818
▁scissor	-5819
▁airstrip	-5820
▁lamppost	-5821
▁radishes	-5822
▁recliner	-5823
▁amusement	-5824
▁cityscape	-5825
▁galloping	-5826
▁presented	-5827
▁renovated	-5828
▁conversing	-5829
▁waterfront	-5830
▁businessman	-5831
▁surfboarding	-5832
rs	-5833
ago	-5834
hop	-5835
pit	-5836
anse	-5837
cess	-5838
ther	-5839
ugly	-5840
▁dvd	-5841
▁gor	-5842
▁hug	-5843
▁ses	-5844
▁stu	-5845
apped	-5846
ctors	-5847
orial	-5848
tower	-5849
▁came	-5850
▁dots	-5851
▁foal	-5852
▁vane	-5853
▁vine	-5854
icking	-5855
itting	-5856
▁exerc	-5857
▁futon	-5858
▁hooks	-5859
▁licks	-5860
▁might	-5861
▁swims	-5862
▁windm	-5863
▁wrist	-5864
▁climbs	-5865
▁courts	-5866
▁fedora	-5867
▁hallow	-5868
▁litter	-5869
▁shaved	-5870
▁thread	-5871
▁neutral	-5872
▁octopus	-5873
▁raining	-5874
▁readies	-5875
▁vanilla	-5876
▁barriers	-5877
▁bouncing	-5878
▁packaged	-5879
▁removing	-5880
▁sparsely	-5881
▁spinning	-5882
▁available	-5883
▁conductor	-5884
▁flamingos	-5885
▁recording	-5886
▁instrument	-5887
▁instructions	-5888
of	-5889
ham	-5890
ixed	-5891
ough	-5892
rots	-5893
seat	-5894
ucch	-5895
yees	-5896
▁atv	-5897
▁bug	-5898
▁inj	-5899
▁mur	-5900
▁roy	-5901
antic	-5902
bably	-5903
inery	-5904
sized	-5905
▁stay	-5906
▁tier	-5907
▁trot	-5908
▁year	-5909
▁colum	-5910
▁mozza	-5911
▁peach	-5912
▁peeks	-5913
▁subst	-5914
▁tourn	-5915
▁views	-5916
▁waste	-5917
▁zucch	-5918
▁alpine	-5919
▁beanie	-5920
▁burner	-5921
▁destro	-5922
▁noodle	-5923
▁raquet	-5924
▁sesame	-5925
▁sleigh	-5926
▁stereo	-5927
▁stormy	-5928
▁strips	-5929
▁trolly	-5930
▁burners	-5931
▁complex	-5932
▁concert	-5933
▁expanse	-5934
▁propell	-5935
▁sidecar	-5936
▁wildebe	-5937
▁biscuits	-5938
▁charging	-5939
▁downward	-5940
▁dragging	-5941
▁dropping	-5942
▁marching	-5943
▁settings	-5944
▁shepherd	-5945
▁sunshine	-5946
▁architect	-5947
▁captivity	-5948
▁employees	-5949
▁halloween	-5950
▁ornaments	-5951
▁positions	-5952
▁practices	-5953
▁mozzarella	-5954
▁tournament	-5955
▁handicapped	-5956
ola	-5957
wor	-5958
▁mp	-5959
cent	-5960
coat	-5961
opes	-5962
quee	-5963
ques	-5964
rawn	-5965
ties	-5966
▁bib	-5967
▁fet	-5968
▁urn	-5969
fting	-5970
walks	-5971
▁film	-5972
▁gang	-5973
▁gift	-5974
▁gull	-5975
▁loft	-5976
▁mice	-5977
▁pear	-5978
▁plun	-5979
▁poor	-5980
▁vans	-5981
▁vess	-5982
▁ways	-5983
▁chews	-5984
▁exper	-5985
▁grove	-5986
▁guide	-5987
▁ranch	-5988
▁salon	-5989
▁shine	-5990
▁solar	-5991
▁terri	-5992
▁wired	-5993
▁yummy	-5994
▁barber	-5995
▁casual	-5996
▁drapes	-5997
▁handed	-5998
▁huddle	-5999
▁import	-6000
▁master	-6001
▁moment	-6002
▁ponies	-6003
▁salmon	-6004
▁bandana	-6005
▁baseman	-6006
▁daisies	-6007
▁florets	-6008
▁flowery	-6009
▁focused	-6010
▁hunched	-6011
▁laundry	-6012
▁stylish	-6013
▁upwards	-6014
▁approach	-6015
▁grooming	-6016
▁ornament	-6017
▁sections	-6018
▁silhouet	-6019
▁zucchini	-6020
▁finishing	-6021
▁machinery	-6022
▁overgrown	-6023
▁personnel	-6024
▁residence	-6025
▁delivering	-6026
▁vegetarian	-6027
▁workstation	-6028
▁refridgerator	-6029
omy	-6030
▁ga	-6031
eech	-6032
ends	-6033
gram	-6034
rise	-6035
▁appa	-6036
▁garb	-6037
▁mosa	-6038
▁oxen	-6039
▁peak	-6040
▁salt	-6041
▁snap	-6042
▁cocon	-6043
▁dense	-6044
▁fleet	-6045
▁reins	-6046
▁teamm	-6047
▁waist	-6048
▁wedge	-6049
▁breads	-6050
▁cactus	-6051
▁danger	-6052
▁spaces	-6053
▁speech	-6054
▁ticket	-6055
▁turtle	-6056
▁unders	-6057
structed	-6058
▁congreg	-6059
▁fencing	-6060
▁gadgets	-6061
▁numeral	-6062
▁parrots	-6063
▁peaches	-6064
▁wheelie	-6065
▁athletes	-6066
▁crawling	-6067
▁engaging	-6068
▁forehead	-6069
▁pressing	-6070
▁slippers	-6071
▁standard	-6072
▁currently	-6073
▁household	-6074
▁languages	-6075
▁plantains	-6076
▁populated	-6077
▁reception	-6078
▁weathered	-6079
▁descending	-6080
▁hamburgers	-6081
▁compartments	-6082
oy	-6083
asts	-6084
entr	-6085
hift	-6086
ians	-6087
shop	-6088
▁lav	-6089
▁mcd	-6090
▁pud	-6091
▁ver	-6092
ables	-6093
cycle	-6094
erior	-6095
estic	-6096
fight	-6097
▁amaz	-6098
▁caps	-6099
▁crab	-6100
▁goof	-6101
▁husk	-6102
▁idle	-6103
▁live	-6104
▁teac	-6105
aneous	-6106
market	-6107
▁activ	-6108
▁bloss	-6109
▁camel	-6110
▁goble	-6111
▁think	-6112
▁warns	-6113
erstate	-6114
▁krispy	-6115
▁mosaic	-6116
▁nature	-6117
▁needle	-6118
▁poured	-6119
▁proper	-6120
▁shells	-6121
▁sunlit	-6122
▁trails	-6123
▁affixed	-6124
▁carried	-6125
▁haircut	-6126
▁theater	-6127
▁western	-6128
▁markings	-6129
▁parasail	-6130
▁probably	-6131
▁stuffing	-6132
▁trekking	-6133
▁carefully	-6134
▁important	-6135
▁patiently	-6136
▁interstate	-6137
▁beautifully	-6138
▁marketplace	-6139
▁underground	-6140
sk	-6141
tal	-6142
▁et	-6143
alls	-6144
▁veg	-6145
drawn	-6146
eline	-6147
stead	-6148
▁bunt	-6149
▁hoop	-6150
▁scra	-6151
▁teap	-6152
▁ugly	-6153
▁amtra	-6154
▁berry	-6155
▁nasty	-6156
▁royal	-6157
▁tails	-6158
▁wooly	-6159
▁awaits	-6160
▁buried	-6161
▁cables	-6162
▁filthy	-6163
▁hammer	-6164
▁herded	-6165
▁levels	-6166
▁pencil	-6167
▁server	-6168
▁struct	-6169
▁victor	-6170
▁banquet	-6171
▁charger	-6172
▁handled	-6173
▁mcdonal	-6174
▁slanted	-6175
▁utensil	-6176
▁concentr	-6177
▁foraging	-6178
▁memorial	-6179
▁showroom	-6180
▁stylized	-6181
▁vertical	-6182
▁croissant	-6183
▁flowering	-6184
▁makeshift	-6185
▁political	-6186
▁calculator	-6187
▁clocktower	-6188
▁consumption	-6189
ci	-6190
ica	-6191
not	-6192
agie	-6193
rail	-6194
tail	-6195
▁bud	-6196
eries	-6197
▁chee	-6198
▁elev	-6199
▁fran	-6200
▁lips	-6201
▁roam	-6202
bbling	-6203
umpled	-6204
▁barge	-6205
▁kreme	-6206
▁linen	-6207
▁pokes	-6208
▁proud	-6209
▁rhino	-6210
▁ripen	-6211
▁scrub	-6212
▁teens	-6213
▁twent	-6214
▁amtrak	-6215
▁bridle	-6216
▁cloths	-6217
▁diaper	-6218
▁fences	-6219
▁hoagie	-6220
▁median	-6221
▁sleepy	-6222
▁extreme	-6223
▁packing	-6224
▁peaking	-6225
▁pelican	-6226
▁snowing	-6227
▁spewing	-6228
▁blooming	-6229
▁cushions	-6230
▁customer	-6231
▁depicted	-6232
▁landscap	-6233
▁crocheted	-6234
▁patriotic	-6235
▁stockings	-6236
▁substance	-6237
▁headlights	-6238
▁ornamental	-6239
▁peacefully	-6240
▁supermarket	-6241
em	-6242
je	-6243
ake	-6244
vas	-6245
▁aer	-6246
▁vir	-6247
inary	-6248
▁asia	-6249
▁eyed	-6250
▁hash	-6251
▁obsc	-6252
▁rhin	-6253
▁added	-6254
▁depar	-6255
▁estab	-6256
▁proce	-6257
▁quart	-6258
▁rooft	-6259
▁yacht	-6260
▁attach	-6261
▁blazer	-6262
▁enough	-6263
▁ferris	-6264
▁hockey	-6265
▁squats	-6266
▁tossed	-6267
▁captive	-6268
▁channel	-6269
▁cheeses	-6270
▁coaster	-6271
▁combing	-6272
▁england	-6273
▁expired	-6274
▁housing	-6275
▁instead	-6276
▁product	-6277
▁trimmed	-6278
▁grilling	-6279
▁helmeted	-6280
▁snuggled	-6281
▁destroyed	-6282
▁highchair	-6283
▁retriever	-6284
▁rd	-6285
lift	-6286
▁ast	-6287
▁dre	-6288
▁rat	-6289
icans	-6290
occup	-6291
▁chic	-6292
▁clip	-6293
▁conv	-6294
▁cris	-6295
▁croo	-6296
▁drop	-6297
▁fell	-6298
▁safe	-6299
▁suck	-6300
eboard	-6301
▁brass	-6302
▁chill	-6303
▁drizz	-6304
▁fedex	-6305
▁herds	-6306
▁husky	-6307
▁lands	-6308
▁lefto	-6309
▁minim	-6310
▁packs	-6311
▁rally	-6312
▁aboard	-6313
▁bubble	-6314
▁intern	-6315
▁knacks	-6316
▁rapids	-6317
▁replic	-6318
▁speaks	-6319
▁stoves	-6320
▁unused	-6321
occupied	-6322
▁boarded	-6323
▁clothed	-6324
▁columns	-6325
▁deliver	-6326
▁flavors	-6327
▁halfway	-6328
▁lightly	-6329
▁broadway	-6330
▁exterior	-6331
▁headband	-6332
▁nuzzling	-6333
▁studying	-6334
▁blueberry	-6335
▁firefight	-6336
▁intricate	-6337
▁motorboat	-6338
▁sidewalks	-6339
▁overturned	-6340
▁structures	-6341
▁recreational	-6342
▁architectural	-6343
erk	-6344
aced	-6345
dock	-6346
ebur	-6347
epad	-6348
mers	-6349
omas	-6350
shed	-6351
▁dem	-6352
▁oat	-6353
cases	-6354
ckled	-6355
ented	-6356
isted	-6357
▁affe	-6358
▁cant	-6359
▁crus	-6360
▁ding	-6361
▁dude	-6362
▁goth	-6363
▁misc	-6364
▁musc	-6365
▁took	-6366
▁claus	-6367
▁layed	-6368
▁mitts	-6369
▁react	-6370
▁salsa	-6371
▁shack	-6372
▁sorts	-6373
▁staff	-6374
▁swift	-6375
▁taste	-6376
▁toned	-6377
▁woven	-6378
tenance	-6379
▁blades	-6380
▁browns	-6381
▁cranes	-6382
▁employ	-6383
▁models	-6384
▁seeing	-6385
▁styles	-6386
▁taller	-6387
▁teapot	-6388
▁viewer	-6389
▁wander	-6390
▁worked	-6391
▁contact	-6392
▁fireman	-6393
▁leashes	-6394
▁lunging	-6395
▁macbook	-6396
▁signing	-6397
▁tattoos	-6398
▁wrought	-6399
▁maintain	-6400
▁shooting	-6401
▁groceries	-6402
▁underside	-6403
▁activities	-6404
▁eyeglasses	-6405
▁instructor	-6406
▁contraption	-6407
▁maintenance	-6408
ape	-6409
psi	-6410
whe	-6411
amel	-6412
born	-6413
ston	-6414
▁dus	-6415
▁rig	-6416
arium	-6417
atian	-6418
ratul	-6419
▁bone	-6420
▁cave	-6421
▁lant	-6422
▁nook	-6423
▁pood	-6424
▁rink	-6425
▁root	-6426
huahua	-6427
▁colla	-6428
▁diced	-6429
▁grave	-6430
▁hides	-6431
▁loves	-6432
▁marks	-6433
▁murky	-6434
▁novel	-6435
▁pepsi	-6436
▁swiss	-6437
fficult	-6438
▁attack	-6439
▁canvas	-6440
▁contin	-6441
▁famous	-6442
▁glider	-6443
▁gloomy	-6444
▁hearts	-6445
▁pantry	-6446
▁pauses	-6447
▁quaint	-6448
▁stages	-6449
▁thomas	-6450
▁tosses	-6451
▁burrito	-6452
▁butcher	-6453
▁central	-6454
▁checker	-6455
▁docking	-6456
▁preform	-6457
▁receive	-6458
▁animated	-6459
▁changing	-6460
▁affection	-6461
▁chihuahua	-6462
▁curiously	-6463
▁dalmatian	-6464
▁difficult	-6465
▁establish	-6466
▁newspapers	-6467
gi	-6468
aps	-6469
dry	-6470
tel	-6471
lect	-6472
meal	-6473
mock	-6474
▁cly	-6475
▁mad	-6476
▁til	-6477
▁tit	-6478
▁wak	-6479
guard	-6480
iforn	-6481
orous	-6482
orted	-6483
uffed	-6484
▁aust	-6485
▁buds	-6486
▁ford	-6487
▁hour	-6488
▁ping	-6489
▁sams	-6490
▁scre	-6491
▁sell	-6492
▁twel	-6493
▁wavy	-6494
ensive	-6495
flower	-6496
▁bring	-6497
▁conne	-6498
▁fryer	-6499
▁greet	-6500
▁jewel	-6501
▁mason	-6502
▁pretz	-6503
▁proje	-6504
▁strap	-6505
▁wheat	-6506
▁wrong	-6507
▁yield	-6508
ifornia	-6509
uggling	-6510
▁fairly	-6511
▁frisby	-6512
▁layers	-6513
▁salads	-6514
▁sauerk	-6515
▁stalks	-6516
▁casting	-6517
▁certain	-6518
▁hammock	-6519
▁observe	-6520
▁replica	-6521
▁rowboat	-6522
▁spreads	-6523
▁assembly	-6524
▁backseat	-6525
▁boulders	-6526
▁elevator	-6527
▁modified	-6528
▁paneling	-6529
▁toilette	-6530
▁trailers	-6531
▁cheesebur	-6532
▁kiteboard	-6533
▁meatballs	-6534
▁scrambled	-6535
▁spreading	-6536
▁streamers	-6537
▁appetizers	-6538
▁california	-6539
▁controlled	-6540
▁handlebars	-6541
▁unoccupied	-6542
▁surroundings	-6543
fth	-6544
kia	-6545
nas	-6546
nie	-6547
▁zo	-6548
down	-6549
itti	-6550
▁pra	-6551
known	-6552
opard	-6553
▁beam	-6554
▁find	-6555
▁prey	-6556
▁rund	-6557
▁sigh	-6558
▁tell	-6559
▁bases	-6560
▁blade	-6561
▁broth	-6562
▁crazy	-6563
▁fours	-6564
▁mango	-6565
▁motes	-6566
▁parks	-6567
▁plank	-6568
▁races	-6569
▁therm	-6570
▁tongs	-6571
▁arrive	-6572
▁beauty	-6573
▁boiled	-6574
▁coated	-6575
▁column	-6576
▁entire	-6577
▁juicer	-6578
▁kayaks	-6579
▁misses	-6580
▁paying	-6581
▁protru	-6582
▁rescue	-6583
▁sleeve	-6584
▁twelve	-6585
▁twenty	-6586
▁virgin	-6587
▁brushed	-6588
▁burgers	-6589
▁checked	-6590
▁couples	-6591
▁divider	-6592
▁gathers	-6593
▁graphic	-6594
▁newborn	-6595
▁plunger	-6596
▁ribbons	-6597
▁rundown	-6598
▁standup	-6599
▁terrier	-6600
▁aquarium	-6601
▁brownies	-6602
▁dangling	-6603
▁employee	-6604
▁outdated	-6605
▁recently	-6606
▁triangle	-6607
▁community	-6608
▁lifeguard	-6609
▁throughout	-6610
▁perspective	-6611
▁demonstration	-6612
▁investigating	-6613
▁x	-6614
cis	-6615
dale	-6616
well	-6617
▁cel	-6618
▁enc	-6619
▁hyd	-6620
▁unb	-6621
▁wid	-6622
clock	-6623
▁abst	-6624
▁arts	-6625
▁bake	-6626
▁bust	-6627
▁idly	-6628
▁knot	-6629
▁seal	-6630
▁spen	-6631
▁tone	-6632
▁angel	-6633
▁bundt	-6634
▁combo	-6635
▁foamy	-6636
▁gifts	-6637
▁glaze	-6638
▁goers	-6639
▁goofy	-6640
▁india	-6641
▁laden	-6642
▁learn	-6643
▁merch	-6644
▁nokia	-6645
▁steal	-6646
▁sweep	-6647
▁whose	-6648
inating	-6649
▁diners	-6650
▁dunkin	-6651
▁gothic	-6652
▁laughs	-6653
▁lunges	-6654
▁luxury	-6655
▁magnet	-6656
▁palace	-6657
▁poodle	-6658
▁region	-6659
▁resemb	-6660
▁shears	-6661
▁southw	-6662
▁spiral	-6663
▁austral	-6664
▁boating	-6665
▁caramel	-6666
▁coaches	-6667
▁groomed	-6668
▁injured	-6669
▁leopard	-6670
▁mailbox	-6671
▁minimal	-6672
▁miscell	-6673
▁oatmeal	-6674
▁paddock	-6675
▁rounded	-6676
▁samsung	-6677
▁spanish	-6678
▁technol	-6679
▁unknown	-6680
▁abstract	-6681
▁backside	-6682
▁bordered	-6683
▁ceilings	-6684
▁patterns	-6685
▁swimsuit	-6686
▁trotting	-6687
▁playfully	-6688
▁wrestling	-6689
▁graduation	-6690
▁mechanical	-6691
▁sauerkraut	-6692
▁cheeseburger	-6693
▁streetlights	-6694
ah	-6695
bla	-6696
yer	-6697
▁mu	-6698
▁ere	-6699
▁inn	-6700
▁iro	-6701
dryer	-6702
kiing	-6703
stick	-6704
▁cabs	-6705
▁coal	-6706
▁laps	-6707
▁lock	-6708
▁norm	-6709
▁peer	-6710
▁succ	-6711
▁sunb	-6712
▁tack	-6713
ensely	-6714
filled	-6715
ifying	-6716
marine	-6717
olding	-6718
▁award	-6719
▁blank	-6720
▁brace	-6721
▁bushy	-6722
▁hours	-6723
▁inner	-6724
▁least	-6725
▁peels	-6726
▁relig	-6727
▁rugby	-6728
▁scoop	-6729
▁shark	-6730
▁squee	-6731
▁vines	-6732
▁boston	-6733
▁crying	-6734
▁lizard	-6735
▁preser	-6736
▁skelet	-6737
▁starts	-6738
▁sweets	-6739
▁trophy	-6740
▁forrest	-6741
▁ironing	-6742
▁jewelry	-6743
▁lighter	-6744
▁pitches	-6745
▁playful	-6746
▁families	-6747
▁leafless	-6748
▁maneuver	-6749
▁national	-6750
▁outhouse	-6751
▁overalls	-6752
▁quarters	-6753
▁rearview	-6754
▁airliners	-6755
▁converted	-6756
▁flatbread	-6757
▁partition	-6758
▁propellor	-6759
▁submarine	-6760
▁croissants	-6761
▁discussing	-6762
▁presenting	-6763
▁constructed	-6764
▁nightstands	-6765
▁establishment	-6766
ae	-6767
hy	-6768
ami	-6769
cre	-6770
▁ir	-6771
▁ye	-6772
atee	-6773
mble	-6774
port	-6775
▁age	-6776
▁dan	-6777
▁gig	-6778
▁lic	-6779
▁oar	-6780
▁sli	-6781
▁tot	-6782
boats	-6783
icles	-6784
inton	-6785
uzzle	-6786
▁mark	-6787
▁spec	-6788
▁sure	-6789
▁taco	-6790
icular	-6791
venile	-6792
▁abund	-6793
▁batch	-6794
▁beads	-6795
▁blown	-6796
▁boxed	-6797
▁coupe	-6798
▁discs	-6799
▁fixed	-6800
▁folks	-6801
▁grind	-6802
▁mount	-6803
▁navig	-6804
▁pleas	-6805
▁robes	-6806
▁twigs	-6807
▁bitten	-6808
▁crumbs	-6809
▁fellow	-6810
▁harley	-6811
▁labels	-6812
▁launch	-6813
▁recipe	-6814
▁shovel	-6815
▁wreath	-6816
▁anticip	-6817
▁banners	-6818
▁bundles	-6819
▁chicago	-6820
▁cottage	-6821
▁feature	-6822
▁flanked	-6823
▁pancake	-6824
▁panting	-6825
▁program	-6826
▁snowman	-6827
▁sunrise	-6828
▁tightly	-6829
▁welcome	-6830
▁alleyway	-6831
▁chatting	-6832
▁curbside	-6833
▁juvenile	-6834
▁roasting	-6835
▁seasoned	-6836
▁companion	-6837
▁congratul	-6838
▁oversized	-6839
▁releasing	-6840
▁pineapples	-6841
▁projection	-6842
▁microphones	-6843
▁performance	-6844
▁miscellaneous	-6845
my	-6846
acy	-6847
las	-6848
wag	-6849
post	-6850
uffs	-6851
unks	-6852
ustr	-6853
▁unt	-6854
▁vel	-6855
arded	-6856
graph	-6857
iders	-6858
inted	-6859
monds	-6860
olded	-6861
▁able	-6862
▁amen	-6863
▁arab	-6864
▁effe	-6865
▁goog	-6866
▁monk	-6867
▁pong	-6868
▁slal	-6869
▁stor	-6870
▁vers	-6871
▁waln	-6872
▁zomb	-6873
▁banks	-6874
▁bison	-6875
▁curls	-6876
▁demol	-6877
▁drops	-6878
▁grate	-6879
▁gummy	-6880
▁hawai	-6881
▁holly	-6882
▁invol	-6883
▁loose	-6884
▁melon	-6885
▁motoc	-6886
▁scall	-6887
▁seper	-6888
▁soars	-6889
▁spraw	-6890
raction	-6891
shopped	-6892
▁attend	-6893
▁battle	-6894
▁canned	-6895
▁conven	-6896
▁freely	-6897
▁promin	-6898
▁quiche	-6899
▁sheeps	-6900
▁stovet	-6901
▁tshirt	-6902
▁wedges	-6903
▁allowed	-6904
▁almonds	-6905
▁bedside	-6906
▁hitched	-6907
▁intense	-6908
▁peoples	-6909
▁repairs	-6910
▁swiftly	-6911
▁univers	-6912
▁varying	-6913
▁barbeque	-6914
▁costumed	-6915
▁knitting	-6916
▁operated	-6917
▁overlook	-6918
▁peaceful	-6919
▁pelicans	-6920
▁shearing	-6921
▁toddlers	-6922
▁tricycle	-6923
▁panoramic	-6924
▁revealing	-6925
▁seasoning	-6926
▁surrounds	-6927
▁horizontal	-6928
▁livingroom	-6929
▁navigating	-6930
▁automobiles	-6931
▁celebratory	-6932
▁centerpiece	-6933
▁participating	-6934
for	-6935
fri	-6936
haw	-6937
nes	-6938
wed	-6939
aces	-6940
ebox	-6941
held	-6942
ints	-6943
▁alt	-6944
▁era	-6945
▁exe	-6946
scale	-6947
tible	-6948
water	-6949
▁exha	-6950
▁gras	-6951
▁last	-6952
▁mats	-6953
▁mick	-6954
▁plac	-6955
▁vibr	-6956
▁beaks	-6957
▁bento	-6958
▁bloom	-6959
▁bored	-6960
▁coral	-6961
▁elbow	-6962
▁laven	-6963
▁nails	-6964
▁neath	-6965
▁prair	-6966
▁visor	-6967
▁volks	-6968
▁wants	-6969
▁whine	-6970
▁booths	-6971
▁burned	-6972
▁clydes	-6973
▁collie	-6974
▁dollar	-6975
▁facial	-6976
▁galley	-6977
▁hurdle	-6978
▁looked	-6979
▁parlor	-6980
▁pilots	-6981
▁repres	-6982
▁stroll	-6983
▁brownie	-6984
▁bushels	-6985
▁details	-6986
▁flipped	-6987
▁hamster	-6988
▁messing	-6989
▁patient	-6990
▁popular	-6991
▁saddled	-6992
▁sailors	-6993
▁yawning	-6994
▁buliding	-6995
▁diagonal	-6996
▁frowning	-6997
▁gestures	-6998
▁indicate	-6999
▁parasols	-7000
▁stovetop	-7001
▁windmill	-7002
▁packaging	-7003
▁religious	-7004
▁sunflower	-7005
▁victorian	-7006
▁attraction	-7007
▁discussion	-7008
▁enthusiast	-7009
▁mannequins	-7010
▁renovation	-7011
ys	-7012
das	-7013
don	-7014
iel	-7015
mit	-7016
▁bm	-7017
ader	-7018
airs	-7019
eing	-7020
itor	-7021
pace	-7022
shot	-7023
vids	-7024
▁ank	-7025
▁bom	-7026
▁cos	-7027
▁poo	-7028
▁sam	-7029
▁sox	-7030
bbled	-7031
creen	-7032
osaur	-7033
▁beag	-7034
▁bits	-7035
▁cred	-7036
▁diff	-7037
▁disp	-7038
▁gnar	-7039
▁lazy	-7040
▁memo	-7041
▁mens	-7042
▁scar	-7043
▁whip	-7044
tended	-7045
unches	-7046
vidson	-7047
▁cheek	-7048
▁dated	-7049
▁edges	-7050
▁fixes	-7051
▁roped	-7052
▁scaff	-7053
▁tanks	-7054
▁union	-7055
▁aprons	-7056
▁cannot	-7057
▁childs	-7058
▁chunks	-7059
▁concer	-7060
▁goatee	-7061
▁mantel	-7062
▁mickey	-7063
▁pinned	-7064
▁pointy	-7065
▁remain	-7066
▁toothp	-7067
▁tusked	-7068
▁uphill	-7069
▁velvet	-7070
▁vessel	-7071
▁bearing	-7072
▁coconut	-7073
▁crochet	-7074
▁crooked	-7075
▁directs	-7076
▁floored	-7077
▁handler	-7078
▁matches	-7079
▁planted	-7080
▁prairie	-7081
▁pudding	-7082
▁rooftop	-7083
▁sprayed	-7084
▁stately	-7085
▁activity	-7086
▁cruising	-7087
▁handmade	-7088
▁lavender	-7089
▁numbered	-7090
▁raincoat	-7091
▁swimmers	-7092
▁barricade	-7093
▁glassware	-7094
▁hairdryer	-7095
▁locations	-7096
▁platforms	-7097
▁repairing	-7098
▁wonderful	-7099
▁workspace	-7100
▁parachutes	-7101
▁parasailer	-7102
▁preforming	-7103
▁controlling	-7104
▁convertible	-7105
▁kitchenette	-7106
▁photographing	-7107
aki	-7108
dar	-7109
ogy	-7110
ards	-7111
ison	-7112
liet	-7113
long	-7114
vern	-7115
vish	-7116
▁cob	-7117
▁emo	-7118
▁gut	-7119
▁unp	-7120
▁via	-7121
cisco	-7122
ieval	-7123
works	-7124
▁bark	-7125
▁bows	-7126
▁burg	-7127
▁host	-7128
▁lace	-7129
▁pars	-7130
▁sitt	-7131
dering	-7132
elines	-7133
ential	-7134
▁bound	-7135
▁crash	-7136
▁denim	-7137
▁dolly	-7138
▁flour	-7139
▁given	-7140
▁legos	-7141
▁masks	-7142
▁misty	-7143
▁north	-7144
▁ruler	-7145
▁sales	-7146
▁shrub	-7147
▁better	-7148
▁guards	-7149
▁knight	-7150
▁lavish	-7151
▁offers	-7152
▁purses	-7153
▁slalom	-7154
▁cockpit	-7155
▁granola	-7156
▁license	-7157
▁needles	-7158
▁peanuts	-7159
▁profile	-7160
▁sneaker	-7161
▁symbols	-7162
▁vibrant	-7163
▁casually	-7164
▁contempl	-7165
▁dinosaur	-7166
▁dumpster	-7167
▁forehand	-7168
▁handling	-7169
▁medieval	-7170
▁skeleton	-7171
▁arranging	-7172
▁celebrate	-7173
▁commuters	-7174
▁francisco	-7175
▁luxurious	-7176
▁searching	-7177
▁triangular	-7178
▁silhouetted	-7179
▁wildflowers	-7180
au	-7181
bl	-7182
dog	-7183
han	-7184
unt	-7185
▁mm	-7186
▁vw	-7187
cola	-7188
happ	-7189
igns	-7190
ilia	-7191
itol	-7192
olin	-7193
rang	-7194
ship	-7195
undy	-7196
▁amp	-7197
▁cyl	-7198
▁neg	-7199
▁ner	-7200
▁occ	-7201
▁sen	-7202
ander	-7203
iffel	-7204
organ	-7205
story	-7206
▁drum	-7207
▁graf	-7208
▁hugs	-7209
▁pins	-7210
▁stro	-7211
▁tips	-7212
▁toll	-7213
▁tons	-7214
▁tren	-7215
ometer	-7216
stairs	-7217
▁adorn	-7218
▁await	-7219
▁baker	-7220
▁beams	-7221
▁cheer	-7222
▁dives	-7223
▁doily	-7224
▁drums	-7225
▁leafs	-7226
▁score	-7227
▁wraps	-7228
▁always	-7229
▁arches	-7230
▁bandan	-7231
▁beagle	-7232
▁duffel	-7233
▁eiffel	-7234
▁france	-7235
▁icebox	-7236
▁incred	-7237
▁marshm	-7238
▁mouses	-7239
▁movies	-7240
▁normal	-7241
▁racers	-7242
▁shakes	-7243
▁switch	-7244
▁tipped	-7245
▁toliet	-7246
attended	-7247
▁address	-7248
▁capitol	-7249
▁century	-7250
▁cowboys	-7251
▁filming	-7252
▁minutes	-7253
▁nowhere	-7254
▁rooster	-7255
▁armchair	-7256
▁browsing	-7257
▁burgundy	-7258
▁gigantic	-7259
▁halfpipe	-7260
▁hawaiian	-7261
▁nibbling	-7262
▁overview	-7263
▁sampling	-7264
▁spanning	-7265
▁volkswag	-7266
▁dangerous	-7267
▁defensive	-7268
▁eachother	-7269
▁socializing	-7270
gus	-7271
rob	-7272
rung	-7273
with	-7274
▁bmw	-7275
▁doc	-7276
▁hig	-7277
▁hoo	-7278
▁ivy	-7279
▁jes	-7280
▁law	-7281
▁lla	-7282
▁rub	-7283
▁spo	-7284
▁usa	-7285
▁val	-7286
▁yak	-7287
eding	-7288
happy	-7289
ifier	-7290
mesan	-7291
▁buoy	-7292
▁crop	-7293
▁diet	-7294
▁east	-7295
▁jean	-7296
▁pigs	-7297
▁pops	-7298
▁quar	-7299
▁reco	-7300
▁soil	-7301
▁tots	-7302
▁whom	-7303
ulture	-7304
▁anten	-7305
▁dingy	-7306
▁flush	-7307
▁grows	-7308
▁limbs	-7309
▁maybe	-7310
▁penny	-7311
▁rared	-7312
▁sodas	-7313
▁swirl	-7314
▁tater	-7315
▁tells	-7316
itorium	-7317
▁adjust	-7318
▁credit	-7319
▁dental	-7320
▁detour	-7321
▁facade	-7322
▁linger	-7323
▁petals	-7324
▁ripped	-7325
▁temple	-7326
▁tripod	-7327
▁waking	-7328
▁breaded	-7329
▁cleaner	-7330
▁dispens	-7331
▁donkeys	-7332
▁festive	-7333
▁headset	-7334
▁hilltop	-7335
▁illustr	-7336
▁impress	-7337
▁testing	-7338
▁upscale	-7339
organized	-7340
▁basement	-7341
▁combined	-7342
▁davidson	-7343
▁loveseat	-7344
▁majestic	-7345
▁mcdonald	-7346
▁messages	-7347
▁ordering	-7348
▁parmesan	-7349
▁sprawled	-7350
▁starring	-7351
▁amenities	-7352
▁concerned	-7353
▁handstand	-7354
▁ostriches	-7355
▁receiving	-7356
▁sidelines	-7357
▁stationed	-7358
▁auditorium	-7359
▁clydesdale	-7360
▁demolished	-7361
▁mattresses	-7362
▁transported	-7363
bus	-7364
elt	-7365
agna	-7366
foil	-7367
gate	-7368
hern	-7369
tles	-7370
uzzi	-7371
▁awk	-7372
▁bon	-7373
▁cds	-7374
▁fav	-7375
▁hus	-7376
▁isn	-7377
▁jac	-7378
▁mal	-7379
▁raz	-7380
▁ren	-7381
▁slo	-7382
close	-7383
igned	-7384
▁badm	-7385
▁choo	-7386
▁flys	-7387
▁hump	-7388
▁ipad	-7389
▁lids	-7390
▁peep	-7391
▁poll	-7392
▁ribs	-7393
▁skim	-7394
▁slat	-7395
lender	-7396
ptions	-7397
screen	-7398
urfing	-7399
▁embed	-7400
▁envel	-7401
▁globe	-7402
▁medal	-7403
▁paris	-7404
▁sings	-7405
▁tones	-7406
▁wades	-7407
hydrant	-7408
▁adding	-7409
▁aiming	-7410
▁announ	-7411
▁arabic	-7412
▁breaks	-7413
▁clause	-7414
▁cliffs	-7415
▁compon	-7416
▁manual	-7417
▁mature	-7418
▁member	-7419
▁missed	-7420
▁onward	-7421
▁petted	-7422
▁stradd	-7423
▁womans	-7424
▁woolly	-7425
▁youths	-7426
▁amazing	-7427
▁awkward	-7428
▁charter	-7429
▁circles	-7430
▁cracker	-7431
▁jacuzzi	-7432
▁lasagna	-7433
▁lobster	-7434
▁patches	-7435
▁pecking	-7436
▁protect	-7437
▁seaside	-7438
▁converse	-7439
▁fighters	-7440
▁handrail	-7441
▁homeless	-7442
▁munching	-7443
▁observes	-7444
▁planters	-7445
▁purchase	-7446
▁shutters	-7447
▁speckled	-7448
▁clustered	-7449
▁discarded	-7450
▁obstacles	-7451
▁billboards	-7452
▁grasslands	-7453
▁unattended	-7454
▁university	-7455
▁wildebeest	-7456
▁marshmallow	-7457
▁restaurants	-7458
hn	-7459
ass	-7460
hor	-7461
ict	-7462
ief	-7463
ike	-7464
lev	-7465
yon	-7466
▁dw	-7467
blem	-7468
gons	-7469
heye	-7470
rack	-7471
rica	-7472
weed	-7473
▁ash	-7474
▁did	-7475
▁gay	-7476
▁gir	-7477
▁hey	-7478
▁jun	-7479
▁sed	-7480
antly	-7481
olate	-7482
tened	-7483
▁arid	-7484
▁bris	-7485
▁mile	-7486
▁naps	-7487
▁nude	-7488
▁scot	-7489
▁sele	-7490
▁sequ	-7491
▁shar	-7492
capped	-7493
iously	-7494
rested	-7495
▁booze	-7496
▁ditch	-7497
▁effic	-7498
▁expla	-7499
▁freez	-7500
▁hatch	-7501
▁looms	-7502
▁manic	-7503
▁plums	-7504
▁pound	-7505
▁prist	-7506
▁puffy	-7507
▁years	-7508
dressed	-7509
▁africa	-7510
▁angels	-7511
▁angles	-7512
▁artist	-7513
▁bloody	-7514
▁creamy	-7515
▁eatery	-7516
▁gazebo	-7517
▁guides	-7518
▁necess	-7519
▁outlet	-7520
▁sailor	-7521
▁satell	-7522
▁wagons	-7523
▁weight	-7524
▁winery	-7525
▁arrives	-7526
▁boulder	-7527
▁bubbles	-7528
▁concept	-7529
▁feather	-7530
▁fisheye	-7531
▁melting	-7532
▁ordered	-7533
▁parsley	-7534
▁pockets	-7535
▁seaweed	-7536
▁sheared	-7537
▁skaters	-7538
▁teacher	-7539
▁unident	-7540
▁apparent	-7541
▁cardinal	-7542
▁embedded	-7543
▁exercise	-7544
▁friendly	-7545
▁inspects	-7546
▁leftover	-7547
▁placemat	-7548
▁sprinkle	-7549
▁steaming	-7550
▁visiting	-7551
▁workshop	-7552
▁alcoholic	-7553
▁automatic	-7554
▁badminton	-7555
▁fireworks	-7556
▁intensely	-7557
▁perfectly	-7558
▁stairwell	-7559
▁strolling	-7560
▁celebrates	-7561
▁chalkboard	-7562
▁protruding	-7563
▁technology	-7564
▁landscaping	-7565
▁scaffolding	-7566
▁waterskiing	-7567
rd	-7568
▁q	-7569
com	-7570
ism	-7571
rad	-7572
ucc	-7573
wer	-7574
▁ec	-7575
▁kh	-7576
▁lu	-7577
▁uk	-7578
gien	-7579
pect	-7580
uded	-7581
▁etc	-7582
▁gum	-7583
▁ord	-7584
cedes	-7585
ipher	-7586
posed	-7587
ppers	-7588
press	-7589
▁ages	-7590
▁brun	-7591
▁cuis	-7592
▁date	-7593
▁dips	-7594
▁fuel	-7595
▁lost	-7596
▁pooh	-7597
▁secl	-7598
▁song	-7599
▁stab	-7600
▁surg	-7601
▁util	-7602
▁vict	-7603
mingly	-7604
▁acrob	-7605
▁aerop	-7606
▁beets	-7607
▁build	-7608
▁cider	-7609
▁clump	-7610
▁domed	-7611
▁flats	-7612
▁focal	-7613
▁hound	-7614
▁jesus	-7615
▁maple	-7616
▁moose	-7617
▁moved	-7618
▁rains	-7619
▁razor	-7620
▁slats	-7621
▁snake	-7622
▁study	-7623
▁theat	-7624
▁witha	-7625
rabilia	-7626
▁copper	-7627
▁cotton	-7628
▁edible	-7629
▁fitted	-7630
▁grains	-7631
▁holing	-7632
▁hungry	-7633
▁hygien	-7634
▁linked	-7635
▁panels	-7636
▁picket	-7637
▁placid	-7638
▁shield	-7639
▁sloped	-7640
▁unpack	-7641
▁warmly	-7642
▁battery	-7643
▁brussel	-7644
▁collect	-7645
▁crashed	-7646
▁crashes	-7647
▁guitars	-7648
▁infield	-7649
▁install	-7650
▁keeping	-7651
▁proudly	-7652
▁receipt	-7653
▁sipping	-7654
▁spilled	-7655
▁tilting	-7656
▁tinfoil	-7657
▁tissues	-7658
▁altitude	-7659
▁antiques	-7660
▁blenders	-7661
▁cocktail	-7662
▁desolate	-7663
▁detailed	-7664
▁ornately	-7665
▁peripher	-7666
▁resemble	-7667
▁shipping	-7668
▁spending	-7669
▁stocking	-7670
▁abundance	-7671
▁billowing	-7672
▁departing	-7673
▁hollywood	-7674
▁interview	-7675
▁jetliners	-7676
▁launching	-7677
▁motorists	-7678
▁notebooks	-7679
▁riverbank	-7680
▁seemingly	-7681
▁remodeling	-7682
▁elaborately	-7683
▁memorabilia	-7684
▁photography	-7685
▁picturesque	-7686
tw	-7687
osk	-7688
ows	-7689
son	-7690
aled	-7691
arat	-7692
away	-7693
cars	-7694
coln	-7695
igan	-7696
inis	-7697
ires	-7698
▁adv	-7699
▁bol	-7700
▁jud	-7701
▁sin	-7702
▁teh	-7703
▁tvs	-7704
berty	-7705
ernal	-7706
orite	-7707
paved	-7708
plant	-7709
▁aqua	-7710
▁blvd	-7711
▁chip	-7712
▁ener	-7713
▁hero	-7714
▁inse	-7715
▁mari	-7716
▁mono	-7717
▁pews	-7718
▁prom	-7719
▁tuna	-7720
▁turb	-7721
▁wiim	-7722
levard	-7723
ointed	-7724
opened	-7725
▁chase	-7726
▁creme	-7727
▁crock	-7728
▁expos	-7729
▁fatig	-7730
▁gazes	-7731
▁gulls	-7732
▁heron	-7733
▁keeps	-7734
▁loads	-7735
▁potty	-7736
▁ridge	-7737
▁skill	-7738
▁swamp	-7739
flowing	-7740
▁acting	-7741
▁bomber	-7742
▁chases	-7743
▁common	-7744
▁cooker	-7745
▁dispos	-7746
▁flames	-7747
▁flavor	-7748
▁nuzzle	-7749
▁parake	-7750
▁pawing	-7751
▁poorly	-7752
▁prints	-7753
▁reigns	-7754
▁rounds	-7755
▁scenes	-7756
▁senior	-7757
▁source	-7758
▁sprays	-7759
▁sticky	-7760
▁strand	-7761
▁strung	-7762
▁trench	-7763
▁america	-7764
▁apparat	-7765
▁balding	-7766
▁cuddled	-7767
▁cuisine	-7768
▁cycling	-7769
▁faucets	-7770
▁gorilla	-7771
▁heating	-7772
▁husband	-7773
▁hygiene	-7774
▁infront	-7775
▁leaking	-7776
▁organic	-7777
▁raisins	-7778
▁remodel	-7779
▁reveals	-7780
▁rushing	-7781
▁saucers	-7782
▁slender	-7783
▁takeout	-7784
▁topless	-7785
▁uneaten	-7786
▁version	-7787
▁avocados	-7788
▁bandanna	-7789
▁collared	-7790
▁creature	-7791
▁drawings	-7792
▁external	-7793
▁favorite	-7794
▁handheld	-7795
▁investig	-7796
▁juggling	-7797
▁lipstick	-7798
▁occupied	-7799
▁offering	-7800
▁onlooker	-7801
▁penguins	-7802
▁pristine	-7803
▁restored	-7804
▁secluded	-7805
▁serviced	-7806
▁antelopes	-7807
▁assembled	-7808
▁countries	-7809
▁distorted	-7810
▁longboard	-7811
▁southwest	-7812
▁streaming	-7813
▁teammates	-7814
▁competitor	-7815
▁congregate	-7816
▁dispensers	-7817
▁formations	-7818
▁maintained	-7819
▁windsurfer	-7820
▁photoshopped	-7821
▁concentrating	-7822
nd	-7823
pr	-7824
bre	-7825
izz	-7826
sty	-7827
upe	-7828
war	-7829
zed	-7830
▁dv	-7831
▁ev	-7832
▁fr	-7833
▁py	-7834
bear	-7835
blue	-7836
girl	-7837
gran	-7838
iing	-7839
onge	-7840
oped	-7841
pens	-7842
ubby	-7843
ucky	-7844
▁ago	-7845
▁ans	-7846
▁cha	-7847
▁dod	-7848
▁dut	-7849
▁joy	-7850
▁mam	-7851
▁pam	-7852
▁sum	-7853
cream	-7854
ooted	-7855
storm	-7856
thora	-7857
veled	-7858
▁beet	-7859
▁chim	-7860
▁colt	-7861
▁danc	-7862
▁hips	-7863
▁jala	-7864
▁kore	-7865
▁larg	-7866
▁ming	-7867
▁orig	-7868
▁outc	-7869
▁pome	-7870
▁smas	-7871
▁tins	-7872
▁wade	-7873
▁want	-7874
▁wife	-7875
angled	-7876
ashore	-7877
ension	-7878
isters	-7879
mobile	-7880
▁charm	-7881
▁chops	-7882
▁explo	-7883
▁feild	-7884
▁glide	-7885
▁kiosk	-7886
▁lapel	-7887
▁milks	-7888
▁plans	-7889
▁plumb	-7890
▁pumps	-7891
▁stark	-7892
▁chubby	-7893
▁cities	-7894
▁doctor	-7895
▁duffle	-7896
▁exting	-7897
▁fronts	-7898
▁guided	-7899
▁hearty	-7900
▁marine	-7901
▁rhinos	-7902
▁rocket	-7903
▁smokes	-7904
▁spider	-7905
▁tiling	-7906
▁violin	-7907
▁waiter	-7908
▁walker	-7909
changing	-7910
▁antenna	-7911
▁eagerly	-7912
▁firemen	-7913
▁goblets	-7914
▁jalapen	-7915
▁jerseys	-7916
▁lecture	-7917
▁liberty	-7918
▁mangoes	-7919
▁minivan	-7920
▁notepad	-7921
▁orchard	-7922
▁organiz	-7923
▁rumpled	-7924
▁turkeys	-7925
▁crafting	-7926
▁creating	-7927
▁emerging	-7928
▁gazelles	-7929
▁gripping	-7930
▁plethora	-7931
▁pomegran	-7932
▁possible	-7933
▁seashore	-7934
▁sheering	-7935
▁shoppers	-7936
▁spotless	-7937
▁tattooed	-7938
▁unopened	-7939
▁wrappers	-7940
▁attendant	-7941
▁batteries	-7942
▁boulevard	-7943
▁curtained	-7944
▁ducklings	-7945
▁prominent	-7946
▁rollerbla	-7947
▁temporary	-7948
▁advertises	-7949
▁attachment	-7950
▁blackberry	-7951
▁cigarettes	-7952
▁completing	-7953
▁procession	-7954
▁protesters	-7955
▁suspenders	-7956
▁butterflies	-7957
▁overflowing	-7958
▁firefighters	-7959
▁demonstrating	-7960
sy	-7961
asy	-7962
▁tu	-7963
dish	-7964
hole	-7965
▁	-7966
a	-7967
e	-7968
n	-7969
t	-7970
o	-7971
i	-7972
r	-7973
s	-7974
l	-7975
h	-7976
d	-7977
g	-7978
c	-7979
p	-7980
w	-7981
b	-7982
f	-7983
u	-7984
m	-7985
.	-7986
k	-7987
y	-7988
v	-7989
z	-7990
x	-7991
,	-7992
j	-7993
'	-7994
q	-7995
